#include "tiny_conv_micro_features_model_data.h"
#ifdef __has_attribute
#define HAVE_ATTRIBUTE(x) __has_attribute(x)
#else
#define HAVE_ATTRIBUTE(x) 0
#endif
#if HAVE_ATTRIBUTE(aligned) || (defined(__GNUC__) && !defined(__clang__))
#define DATA_ALIGN_ATTRIBUTE __attribute__((aligned(4)))
#else
#define DATA_ALIGN_ATTRIBUTE
#endif

const unsigned char g_tiny_conv_micro_features_model_data[] DATA_ALIGN_ATTRIBUTE =  {
  0x1c, 0x00, 0x00, 0x00, 0x54, 0x46, 0x4c, 0x33, 0x00, 0x00, 0x12, 0x00,
  0x1c, 0x00, 0x04, 0x00, 0x08, 0x00, 0x0c, 0x00, 0x10, 0x00, 0x14, 0x00,
  0x00, 0x00, 0x18, 0x00, 0x12, 0x00, 0x00, 0x00, 0x03, 0x00, 0x00, 0x00,
  0x44, 0x35, 0x00, 0x00, 0x10, 0x00, 0x00, 0x00, 0x1c, 0x00, 0x00, 0x00,
  0x2c, 0x00, 0x00, 0x00, 0x0c, 0x00, 0x00, 0x00, 0x01, 0x00, 0x00, 0x00,
  0xc0, 0x00, 0x00, 0x00, 0x01, 0x00, 0x00, 0x00, 0x94, 0x00, 0x00, 0x00,
  0x0f, 0x00, 0x00, 0x00, 0x54, 0x4f, 0x43, 0x4f, 0x20, 0x43, 0x6f, 0x6e,
  0x76, 0x65, 0x72, 0x74, 0x65, 0x64, 0x2e, 0x00, 0x0a, 0x00, 0x00, 0x00,
  0x60, 0x00, 0x00, 0x00, 0x54, 0x00, 0x00, 0x00, 0x48, 0x00, 0x00, 0x00,
  0x3c, 0x00, 0x00, 0x00, 0x34, 0x00, 0x00, 0x00, 0x2c, 0x00, 0x00, 0x00,
  0x20, 0x00, 0x00, 0x00, 0x18, 0x00, 0x00, 0x00, 0x10, 0x00, 0x00, 0x00,
  0x04, 0x00, 0x00, 0x00, 0xe6, 0xcb, 0xff, 0xff, 0x38, 0x00, 0x00, 0x00,
  0x94, 0xcb, 0xff, 0xff, 0x98, 0xcb, 0xff, 0xff, 0xf6, 0xcb, 0xff, 0xff,
  0xe0, 0x01, 0x00, 0x00, 0xa4, 0xcb, 0xff, 0xff, 0xa8, 0xcb, 0xff, 0xff,
  0x06, 0xcc, 0xff, 0xff, 0x50, 0x03, 0x00, 0x00, 0x0e, 0xcc, 0xff, 0xff,
  0x3c, 0x04, 0x00, 0x00, 0x16, 0xcc, 0xff, 0xff, 0x88, 0x33, 0x00, 0x00,
  0xc4, 0xcb, 0xff, 0xff, 0x05, 0x00, 0x00, 0x00, 0x31, 0x2e, 0x35, 0x2e,
  0x30, 0x00, 0x00, 0x00, 0x08, 0x00, 0x0c, 0x00, 0x04, 0x00, 0x08, 0x00,
  0x08, 0x00, 0x00, 0x00, 0x08, 0x00, 0x00, 0x00, 0x09, 0x00, 0x00, 0x00,
  0x13, 0x00, 0x00, 0x00, 0x6d, 0x69, 0x6e, 0x5f, 0x72, 0x75, 0x6e, 0x74,
  0x69, 0x6d, 0x65, 0x5f, 0x76, 0x65, 0x72, 0x73, 0x69, 0x6f, 0x6e, 0x00,
  0x50, 0xfc, 0xff, 0xff, 0x20, 0x00, 0x00, 0x00, 0x14, 0x00, 0x00, 0x00,
  0x08, 0x00, 0x00, 0x00, 0x54, 0x33, 0x00, 0x00, 0x01, 0x00, 0x00, 0x00,
  0x05, 0x00, 0x00, 0x00, 0x01, 0x00, 0x00, 0x00, 0x03, 0x00, 0x00, 0x00,
  0x08, 0x00, 0x00, 0x00, 0x04, 0x01, 0x00, 0x00, 0xbc, 0x32, 0x00, 0x00,
  0x8c, 0x00, 0x00, 0x00, 0x14, 0x00, 0x00, 0x00, 0xcc, 0x01, 0x00, 0x00,
  0x58, 0x01, 0x00, 0x00, 0x2c, 0x02, 0x00, 0x00, 0x10, 0x03, 0x00, 0x00,
  0x6e, 0xcd, 0xff, 0xff, 0x00, 0x00, 0x00, 0x03, 0x10, 0x00, 0x00, 0x00,
  0x08, 0x00, 0x00, 0x00, 0x1c, 0x00, 0x00, 0x00, 0x28, 0x00, 0x00, 0x00,
  0x04, 0x00, 0x00, 0x00, 0x01, 0x00, 0x00, 0x00, 0x31, 0x00, 0x00, 0x00,
  0x28, 0x00, 0x00, 0x00, 0x01, 0x00, 0x00, 0x00, 0x09, 0x00, 0x00, 0x00,
  0x52, 0x65, 0x73, 0x68, 0x61, 0x70, 0x65, 0x5f, 0x32, 0x00, 0x00, 0x00,
  0xd4, 0xfc, 0xff, 0xff, 0x2c, 0x00, 0x00, 0x00, 0x20, 0x00, 0x00, 0x00,
  0x14, 0x00, 0x00, 0x00, 0x04, 0x00, 0x00, 0x00, 0x01, 0x00, 0x00, 0x00,
  0x00, 0x00, 0x00, 0x00, 0x00, 0x00, 0x00, 0x00, 0x01, 0x00, 0x00, 0x00,
  0xc6, 0xd0, 0xd0, 0x3d, 0x01, 0x00, 0x00, 0x00, 0xf5, 0xff, 0xcf, 0x41,
  0x01, 0x00, 0x00, 0x00, 0x00, 0x00, 0x00, 0x00, 0xe2, 0xcd, 0xff, 0xff,
  0x00, 0x00, 0x00, 0x03, 0x10, 0x00, 0x00, 0x00, 0x07, 0x00, 0x00, 0x00,
  0x1c, 0x00, 0x00, 0x00, 0x24, 0x00, 0x00, 0x00, 0x04, 0x00, 0x00, 0x00,
  0x01, 0x00, 0x00, 0x00, 0x19, 0x00, 0x00, 0x00, 0x14, 0x00, 0x00, 0x00,
  0x04, 0x00, 0x00, 0x00, 0x04, 0x00, 0x00, 0x00, 0x52, 0x65, 0x6c, 0x75,
  0x00, 0x00, 0x00, 0x00, 0x44, 0xfd, 0xff, 0xff, 0x2c, 0x00, 0x00, 0x00,
  0x20, 0x00, 0x00, 0x00, 0x14, 0x00, 0x00, 0x00, 0x04, 0x00, 0x00, 0x00,
  0x01, 0x00, 0x00, 0x00, 0x00, 0x00, 0x00, 0x00, 0x00, 0x00, 0x00, 0x00,
  0x01, 0x00, 0x00, 0x00, 0x9b, 0x16, 0x9e, 0x3d, 0x01, 0x00, 0x00, 0x00,
  0x84, 0x78, 0x9d, 0x41, 0x01, 0x00, 0x00, 0x00, 0x00, 0x00, 0x00, 0x00,
  0x52, 0xce, 0xff, 0xff, 0x00, 0x00, 0x00, 0x02, 0x10, 0x00, 0x00, 0x00,
  0x06, 0x00, 0x00, 0x00, 0x10, 0x00, 0x00, 0x00, 0x1c, 0x00, 0x00, 0x00,
  0x01, 0x00, 0x00, 0x00, 0x04, 0x00, 0x00, 0x00, 0x0b, 0x00, 0x00, 0x00,
  0x43, 0x6f, 0x6e, 0x76, 0x32, 0x44, 0x5f, 0x62, 0x69, 0x61, 0x73, 0x00,
  0x44, 0xce, 0xff, 0xff, 0x18, 0x00, 0x00, 0x00, 0x04, 0x00, 0x00, 0x00,
  0x01, 0x00, 0x00, 0x00, 0x00, 0x00, 0x00, 0x00, 0x00, 0x00, 0x00, 0x00,
  0x00, 0x00, 0x00, 0x00, 0x01, 0x00, 0x00, 0x00, 0x49, 0x79, 0x81, 0x39,
  0x10, 0x00, 0x00, 0x00, 0x02, 0xfe, 0xff, 0xff, 0x00, 0x00, 0x00, 0x00,
  0x47, 0xff, 0xff, 0xff, 0x00, 0x00, 0x00, 0x00, 0xba, 0xce, 0xff, 0xff,
  0x00, 0x00, 0x00, 0x03, 0x10, 0x00, 0x00, 0x00, 0x05, 0x00, 0x00, 0x00,
  0x14, 0x00, 0x00, 0x00, 0x24, 0x00, 0x00, 0x00, 0x02, 0x00, 0x00, 0x00,
  0x01, 0x00, 0x00, 0x00, 0x06, 0x00, 0x00, 0x00, 0x0e, 0x00, 0x00, 0x00,
  0x6c, 0x61, 0x62, 0x65, 0x6c, 0x73, 0x5f, 0x73, 0x6f, 0x66, 0x74, 0x6d,
  0x61, 0x78, 0x00, 0x00, 0x1c, 0xfe, 0xff, 0xff, 0x2c, 0x00, 0x00, 0x00,
  0x20, 0x00, 0x00, 0x00, 0x14, 0x00, 0x00, 0x00, 0x04, 0x00, 0x00, 0x00,
  0x01, 0x00, 0x00, 0x00, 0x00, 0x00, 0x00, 0x00, 0x00, 0x00, 0x00, 0x00,
  0x01, 0x00, 0x00, 0x00, 0x00, 0x00, 0x80, 0x3b, 0x01, 0x00, 0x00, 0x00,
  0x00, 0x00, 0x7f, 0x3f, 0x01, 0x00, 0x00, 0x00, 0x00, 0x00, 0x00, 0x00,
  0x2a, 0xcf, 0xff, 0xff, 0x00, 0x00, 0x00, 0x03, 0x10, 0x00, 0x00, 0x00,
  0x04, 0x00, 0x00, 0x00, 0x14, 0x00, 0x00, 0x00, 0x1c, 0x00, 0x00, 0x00,
  0x02, 0x00, 0x00, 0x00, 0x01, 0x00, 0x00, 0x00, 0x06, 0x00, 0x00, 0x00,
  0x05, 0x00, 0x00, 0x00, 0x61, 0x64, 0x64, 0x5f, 0x31, 0x00, 0x00, 0x00,
  0x84, 0xfe, 0xff, 0xff, 0x2c, 0x00, 0x00, 0x00, 0x20, 0x00, 0x00, 0x00,
  0x14, 0x00, 0x00, 0x00, 0x04, 0x00, 0x00, 0x00, 0x01, 0x00, 0x00, 0x00,
  0x01, 0x00, 0x00, 0x00, 0x00, 0x00, 0x00, 0x00, 0x01, 0x00, 0x00, 0x00,
  0x57, 0xea, 0xbf, 0x3d, 0x01, 0x00, 0x00, 0x00, 0x82, 0x6a, 0xbe, 0x41,
  0x01, 0x00, 0x00, 0x00, 0x57, 0xea, 0xbf, 0xbd, 0x92, 0xcf, 0xff, 0xff,
  0x00, 0x00, 0x00, 0x03, 0x10, 0x00, 0x00, 0x00, 0x03, 0x00, 0x00, 0x00,
  0x1c, 0x00, 0x00, 0x00, 0x44, 0x00, 0x00, 0x00, 0x04, 0x00, 0x00, 0x00,
  0x01, 0x00, 0x00, 0x00, 0x05, 0x00, 0x00, 0x00, 0x04, 0x00, 0x00, 0x00,
  0x04, 0x00, 0x00, 0x00, 0x25, 0x00, 0x00, 0x00, 0x77, 0x65, 0x69, 0x67,
  0x68, 0x74, 0x73, 0x5f, 0x71, 0x75, 0x61, 0x6e, 0x74, 0x2f, 0x46, 0x61,
  0x6b, 0x65, 0x51, 0x75, 0x61, 0x6e, 0x74, 0x57, 0x69, 0x74, 0x68, 0x4d,
  0x69, 0x6e, 0x4d, 0x61, 0x78, 0x56, 0x61, 0x72, 0x73, 0x00, 0x00, 0x00,
  0x14, 0xff, 0xff, 0xff, 0x30, 0x00, 0x00, 0x00, 0x24, 0x00, 0x00, 0x00,
  0x18, 0x00, 0x00, 0x00, 0x04, 0x00, 0x00, 0x00, 0x01, 0x00, 0x00, 0x00,
  0x7b, 0x00, 0x00, 0x00, 0x00, 0x00, 0x00, 0x00, 0x00, 0x00, 0x00, 0x00,
  0x01, 0x00, 0x00, 0x00, 0xe1, 0xba, 0x1e, 0x3b, 0x01, 0x00, 0x00, 0x00,
  0xe1, 0x21, 0xa4, 0x3e, 0x01, 0x00, 0x00, 0x00, 0xf5, 0xd8, 0x96, 0xbe,
  0x50, 0x00, 0x00, 0x00, 0x72, 0x6a, 0xc7, 0xb4, 0x6c, 0x8b, 0x9a, 0x97,
  0xff, 0x5b, 0x7f, 0x8f, 0xac, 0x75, 0x62, 0x7b, 0x5b, 0x69, 0xc6, 0x8a,
  0x43, 0x9b, 0x91, 0x77, 0xe8, 0x59, 0x73, 0x75, 0x96, 0x82, 0x43, 0x5d,
  0x2c, 0x77, 0xc3, 0x34, 0x41, 0x9d, 0x88, 0x43, 0xcb, 0x6c, 0x6c, 0x46,
  0x8e, 0x88, 0x40, 0x41, 0x19, 0x5e, 0xd0, 0x5f, 0x46, 0xa2, 0x7a, 0x73,
  0x93, 0x59, 0x66, 0x8a, 0x80, 0x8f, 0x2f, 0x93, 0x17, 0x55, 0xc7, 0x79,
  0x1a, 0x9f, 0x6f, 0xa1, 0x01, 0x4f, 0x56, 0xa4, 0x2c, 0x8a, 0x27, 0xae,
  0x7a, 0xd0, 0xff, 0xff, 0x00, 0x00, 0x00, 0x03, 0x10, 0x00, 0x00, 0x00,
  0x02, 0x00, 0x00, 0x00, 0x14, 0x00, 0x00, 0x00, 0x54, 0x00, 0x00, 0x00,
  0x02, 0x00, 0x00, 0x00, 0x06, 0x00, 0x00, 0x00, 0xd0, 0x07, 0x00, 0x00,
  0x31, 0x00, 0x00, 0x00, 0x77, 0x65, 0x69, 0x67, 0x68, 0x74, 0x73, 0x5f,
  0x71, 0x75, 0x61, 0x6e, 0x74, 0x5f, 0x31, 0x2f, 0x46, 0x61, 0x6b, 0x65,
  0x51, 0x75, 0x61, 0x6e, 0x74, 0x57, 0x69, 0x74, 0x68, 0x4d, 0x69, 0x6e,
  0x4d, 0x61, 0x78, 0x56, 0x61, 0x72, 0x73, 0x2f, 0x74, 0x72, 0x61, 0x6e,
  0x73, 0x70, 0x6f, 0x73, 0x65, 0x00, 0x00, 0x00, 0x0c, 0x00, 0x14, 0x00,
  0x04, 0x00, 0x08, 0x00, 0x0c, 0x00, 0x10, 0x00, 0x0c, 0x00, 0x00, 0x00,
  0x2c, 0x00, 0x00, 0x00, 0x20, 0x00, 0x00, 0x00, 0x14, 0x00, 0x00, 0x00,
  0x04, 0x00, 0x00, 0x00, 0x01, 0x00, 0x00, 0x00, 0x79, 0x00, 0x00, 0x00,
  0x00, 0x00, 0x00, 0x00, 0x01, 0x00, 0x00, 0x00, 0x86, 0x7d, 0x1d, 0x3a,
  0x01, 0x00, 0x00, 0x00, 0x9c, 0xe7, 0xa4, 0x3d, 0x01, 0x00, 0x00, 0x00,
  0x79, 0x9d, 0x93, 0xbd, 0xe0, 0x2e, 0x00, 0x00, 0x80, 0x83, 0xae, 0x51,
  0x6d, 0x2f, 0xc4, 0x53, 0x7c, 0x67, 0xa3, 0x59, 0x83, 0x5d, 0x9d, 0x4d,
  0x6d, 0x56, 0x9d, 0x42, 0x79, 0x74, 0x97, 0x5e, 0x72, 0x6b, 0xa5, 0x50,
  0x75, 0x70, 0xb0, 0x48, 0x7a, 0x69, 0x98, 0x60, 0x74, 0x78, 0xa6, 0x50,
  0x7a, 0x56, 0x9f, 0x6c, 0x64, 0x65, 0xae, 0x4b, 0x73, 0x5f, 0xa5, 0x58,
  0x61, 0x6f, 0x98, 0x51, 0x74, 0x77, 0xae, 0x58, 0x6e, 0x6c, 0xb2, 0x5f,
  0x74, 0x67, 0xaf, 0x57, 0x79, 0x6d, 0xb1, 0x5e, 0x70, 0x6c, 0xaf, 0x41,
  0x90, 0x6e, 0xaf, 0x6a, 0x8f, 0x70, 0x93, 0x6c, 0x7c, 0x82, 0xcb, 0x4c,
  0x6a, 0x71, 0xa9, 0x4a, 0x89, 0x67, 0x9a, 0x5a, 0x87, 0x63, 0x8b, 0x49,
  0x75, 0x5a, 0x9c, 0x60, 0x7e, 0x74, 0x93, 0x48, 0x81, 0x7a, 0xa3, 0x62,
  0x79, 0x6a, 0xa0, 0x52, 0x86, 0x82, 0x9e, 0x57, 0x7c, 0x60, 0x94, 0x33,
  0x8c, 0x7d, 0xaa, 0x55, 0x85, 0x6e, 0xa7, 0x69, 0x7b, 0x51, 0xa0, 0x62,
  0x83, 0x57, 0x9c, 0x51, 0x7f, 0x86, 0xaa, 0x50, 0x84, 0x74, 0xab, 0x52,
  0x8d, 0x70, 0xb6, 0x74, 0x78, 0x6f, 0xb2, 0x5a, 0x8b, 0x78, 0xad, 0x6a,
  0x70, 0x73, 0x99, 0x93, 0x5a, 0x57, 0xb0, 0x7d, 0x7c, 0x83, 0x85, 0x79,
  0x60, 0x7a, 0x7e, 0x73, 0x7b, 0x78, 0x73, 0x9e, 0x64, 0x98, 0x82, 0x86,
  0x7f, 0x82, 0x7c, 0x8b, 0x75, 0x88, 0x8f, 0x71, 0x66, 0x62, 0x85, 0x84,
  0x6e, 0x7a, 0x91, 0x68, 0x7a, 0x8f, 0x86, 0x75, 0x74, 0x81, 0x8a, 0x78,
  0x97, 0x64, 0x8e, 0x8b, 0x6a, 0x6b, 0x86, 0x8b, 0x7d, 0x82, 0x90, 0x6e,
  0x72, 0x86, 0x92, 0x88, 0x6e, 0x80, 0x85, 0x84, 0x74, 0x63, 0xa2, 0x9a,
  0x83, 0x7a, 0xa6, 0x6d, 0x6d, 0x8b, 0xab, 0x8b, 0x5e, 0x74, 0x9c, 0x8c,
  0x6c, 0x72, 0x96, 0x91, 0x68, 0x6e, 0x79, 0x88, 0x6d, 0x74, 0x73, 0x8e,
  0x63, 0x74, 0x73, 0x94, 0x85, 0x90, 0x82, 0x91, 0x7b, 0x8b, 0x79, 0x92,
  0x76, 0x96, 0x84, 0x86, 0x77, 0x8d, 0x7a, 0x78, 0x61, 0x88, 0x7d, 0x7a,
  0x8b, 0x8c, 0x81, 0x72, 0x6d, 0x90, 0x7f, 0x81, 0x7d, 0x91, 0x7c, 0x83,
  0x77, 0x8a, 0x84, 0x7e, 0x89, 0x89, 0x86, 0x87, 0x81, 0x9e, 0x82, 0x99,
  0x72, 0x7c, 0x88, 0x90, 0x87, 0x77, 0x8e, 0x8e, 0x80, 0x83, 0x9d, 0x8e,
  0x77, 0x87, 0xa5, 0x7b, 0x6d, 0x86, 0x9e, 0x7e, 0x63, 0x72, 0x97, 0x84,
  0x64, 0x98, 0x75, 0x87, 0x75, 0x8f, 0x84, 0x89, 0x5e, 0x8d, 0x70, 0x92,
  0x5d, 0x83, 0x81, 0x94, 0x90, 0x88, 0x84, 0x7e, 0x55, 0xa2, 0x8a, 0x89,
  0x77, 0x93, 0x76, 0x7f, 0x68, 0x9d, 0x79, 0x93, 0x6e, 0x94, 0x8b, 0x76,
  0x6c, 0xa9, 0x82, 0x78, 0x78, 0x85, 0x86, 0x73, 0x7e, 0x82, 0x7e, 0x97,
  0x89, 0x7c, 0x7d, 0x81, 0x7b, 0x94, 0x84, 0xa1, 0x8c, 0x8f, 0x85, 0xa6,
  0x7d, 0x8c, 0x98, 0x9b, 0x82, 0x90, 0x94, 0x99, 0x76, 0x84, 0xa5, 0x98,
  0x6b, 0x79, 0xa4, 0x93, 0x63, 0x7c, 0x8a, 0x78, 0x61, 0x81, 0x81, 0x8b,
  0x73, 0x7a, 0x7c, 0x7b, 0x6b, 0x77, 0x81, 0x97, 0x78, 0x93, 0x82, 0x90,
  0x90, 0x77, 0x7f, 0x9b, 0x64, 0x8a, 0x82, 0x78, 0x5f, 0x82, 0x7c, 0x8f,
  0x7a, 0x79, 0x7d, 0x8a, 0x61, 0x85, 0x81, 0x78, 0x7c, 0x82, 0x83, 0x92,
  0x81, 0x8f, 0x81, 0x92, 0x6f, 0x93, 0x7b, 0x82, 0x73, 0x84, 0x7b, 0x92,
  0x7a, 0x96, 0x87, 0xa2, 0x7c, 0x92, 0x84, 0x98, 0x7a, 0x80, 0x90, 0x9c,
  0x74, 0xa8, 0x97, 0xa4, 0x69, 0x93, 0x9d, 0x96, 0x66, 0x7e, 0x9c, 0x75,
  0x65, 0x95, 0x7f, 0x8c, 0x6d, 0x86, 0x7b, 0x81, 0x5a, 0x80, 0x74, 0x75,
  0x73, 0x7c, 0x81, 0x8d, 0x6e, 0x8c, 0x7c, 0x88, 0x88, 0x8e, 0x80, 0xa3,
  0x6a, 0x7b, 0x81, 0x87, 0x83, 0x7e, 0x73, 0x86, 0x65, 0x79, 0x81, 0x92,
  0x62, 0x7e, 0x83, 0x92, 0x82, 0x87, 0x85, 0x8d, 0x71, 0x85, 0x80, 0x81,
  0x87, 0x8c, 0x74, 0xa3, 0x87, 0x84, 0x83, 0x93, 0x85, 0x7d, 0x86, 0x9f,
  0x8c, 0x93, 0x7e, 0x8c, 0x86, 0x87, 0x90, 0x98, 0x8d, 0x83, 0x8e, 0x97,
  0x6b, 0x80, 0x98, 0x95, 0x57, 0x89, 0x8f, 0x8d, 0x4d, 0x85, 0x81, 0x99,
  0x7e, 0x9c, 0x72, 0x7a, 0x57, 0x8d, 0x72, 0x96, 0x70, 0x87, 0x85, 0x96,
  0x77, 0x86, 0x78, 0x8f, 0x91, 0x8e, 0x8a, 0x88, 0x7b, 0x87, 0x80, 0x8c,
  0x63, 0x82, 0x6e, 0x85, 0x6c, 0x84, 0x81, 0x97, 0x6e, 0x80, 0x7d, 0x90,
  0x7b, 0x7a, 0x80, 0x96, 0x81, 0x7b, 0x82, 0x89, 0x7c, 0x86, 0x7b, 0x86,
  0x79, 0x8d, 0x7a, 0xa2, 0x82, 0x82, 0x7c, 0x87, 0x88, 0x86, 0x81, 0xa8,
  0x8c, 0x8c, 0x82, 0x9f, 0x84, 0x78, 0x84, 0xa5, 0x7f, 0x99, 0x93, 0x89,
  0x5e, 0x82, 0xa1, 0x73, 0x63, 0x8e, 0x7f, 0x88, 0x78, 0x98, 0x72, 0x83,
  0x6c, 0x88, 0x6e, 0x95, 0x59, 0x90, 0x7b, 0x87, 0x77, 0x93, 0x85, 0x82,
  0x8a, 0x82, 0x74, 0x83, 0x7a, 0x82, 0x7a, 0x87, 0x78, 0x84, 0x66, 0x8d,
  0x72, 0x7c, 0x82, 0x7c, 0x6c, 0x63, 0x74, 0x9d, 0x79, 0x85, 0x65, 0x86,
  0x86, 0x81, 0x78, 0x86, 0x7f, 0x86, 0x74, 0x97, 0x98, 0x7c, 0x76, 0x97,
  0x76, 0x7f, 0x6b, 0x9b, 0x83, 0x7d, 0x7a, 0xa2, 0x7a, 0x8c, 0x87, 0x99,
  0x9b, 0x7b, 0x85, 0x97, 0x73, 0xb7, 0x88, 0x9c, 0x64, 0x90, 0x92, 0x87,
  0x52, 0x98, 0x78, 0x8e, 0x76, 0x8a, 0x6e, 0x8a, 0x50, 0x94, 0x66, 0x8f,
  0x6d, 0x88, 0x82, 0x7b, 0x85, 0x85, 0x74, 0x7b, 0x7b, 0x7e, 0x70, 0x95,
  0x7c, 0x82, 0x82, 0x9c, 0x7d, 0x85, 0x6e, 0x94, 0x6d, 0x89, 0x85, 0x88,
  0x73, 0x7d, 0x6f, 0x84, 0x85, 0x7f, 0x75, 0x93, 0x7c, 0x7e, 0x79, 0x83,
  0x7d, 0x7f, 0x76, 0x97, 0x81, 0x7f, 0x74, 0x99, 0x83, 0x7e, 0x6f, 0x9c,
  0x83, 0x87, 0x7b, 0x8e, 0x8c, 0x85, 0x75, 0x8c, 0x81, 0x82, 0x7d, 0x89,
  0x6d, 0xa7, 0x89, 0x8e, 0x61, 0x88, 0x95, 0x92, 0x63, 0x85, 0x75, 0x81,
  0x73, 0x94, 0x69, 0x83, 0x6e, 0x91, 0x70, 0x8b, 0x66, 0x83, 0x71, 0x83,
  0x7e, 0x85, 0x68, 0x8f, 0x71, 0x86, 0x76, 0x94, 0x7e, 0x82, 0x71, 0x96,
  0x59, 0x84, 0x62, 0x80, 0x5a, 0x6e, 0x70, 0x88, 0x84, 0x70, 0x6d, 0x8b,
  0x71, 0x7a, 0x76, 0x96, 0x78, 0x7d, 0x65, 0x8b, 0x84, 0x85, 0x77, 0x9b,
  0x72, 0x79, 0x6b, 0x98, 0x86, 0x71, 0x67, 0x8b, 0x73, 0x89, 0x72, 0x90,
  0x91, 0x7d, 0x6a, 0x9b, 0x7e, 0x80, 0x75, 0x9b, 0x6c, 0x92, 0x81, 0x93,
  0x57, 0x85, 0x96, 0x91, 0x5a, 0x8a, 0x6c, 0x78, 0x7a, 0x9b, 0x73, 0x8e,
  0x6a, 0xa5, 0x61, 0x84, 0x67, 0x8d, 0x80, 0x7b, 0x86, 0x89, 0x6e, 0x95,
  0x8a, 0x88, 0x6f, 0x95, 0x79, 0x87, 0x78, 0x8b, 0x6a, 0x87, 0x66, 0x7a,
  0x72, 0x7d, 0x72, 0x8c, 0x88, 0x74, 0x6e, 0x77, 0x7d, 0x77, 0x74, 0x7e,
  0x85, 0x80, 0x65, 0x95, 0x82, 0x7c, 0x7d, 0x87, 0x76, 0x79, 0x6e, 0x84,
  0x6d, 0x81, 0x5e, 0x9c, 0x89, 0x81, 0x6e, 0xa0, 0x71, 0x73, 0x6c, 0x9c,
  0x8b, 0x7c, 0x77, 0xa2, 0x75, 0x79, 0x80, 0x98, 0x5f, 0x80, 0x9b, 0x8a,
  0x67, 0x88, 0x6e, 0x99, 0x76, 0xa1, 0x67, 0x83, 0x62, 0x96, 0x61, 0x93,
  0x6e, 0x8f, 0x7a, 0x83, 0x7e, 0x92, 0x73, 0x8e, 0x7e, 0x8f, 0x6f, 0x8a,
  0x75, 0x85, 0x78, 0x8a, 0x67, 0x7c, 0x6b, 0x95, 0x6d, 0x7c, 0x74, 0x88,
  0x76, 0x7c, 0x6c, 0xa0, 0x85, 0x78, 0x6b, 0x7b, 0x81, 0x7b, 0x69, 0x8f,
  0x88, 0x89, 0x7f, 0x82, 0x87, 0x7b, 0x72, 0x9f, 0x7f, 0x82, 0x5e, 0x97,
  0x82, 0x77, 0x62, 0x87, 0x86, 0x77, 0x64, 0x9e, 0x7d, 0x7f, 0x6f, 0x8f,
  0x86, 0x7e, 0x7f, 0x8d, 0x6f, 0x87, 0x96, 0x7f, 0x55, 0x9b, 0x65, 0x99,
  0x89, 0xa6, 0x6b, 0x81, 0x61, 0xa8, 0x5c, 0x8f, 0x59, 0x9b, 0x86, 0x94,
  0x71, 0x8c, 0x64, 0x9a, 0x91, 0x94, 0x6c, 0x88, 0x78, 0x9a, 0x68, 0x9e,
  0x6e, 0x85, 0x5e, 0x97, 0x7b, 0x87, 0x65, 0x90, 0x70, 0x7b, 0x5e, 0x7d,
  0x6d, 0x6f, 0x61, 0x81, 0x78, 0x6c, 0x66, 0x99, 0x81, 0x7f, 0x73, 0x7e,
  0x7a, 0x83, 0x61, 0x8d, 0x7a, 0x71, 0x62, 0x91, 0x7c, 0x76, 0x6e, 0x92,
  0x87, 0x76, 0x6e, 0x8e, 0x86, 0x73, 0x66, 0x9b, 0x82, 0x75, 0x7f, 0x81,
  0x54, 0x8d, 0x9a, 0x8a, 0x6c, 0x90, 0x74, 0x8f, 0x7d, 0xa5, 0x80, 0x81,
  0x61, 0xa2, 0x63, 0xa1, 0x71, 0xa3, 0x73, 0x96, 0x73, 0x87, 0x6f, 0x9a,
  0x87, 0x8a, 0x7b, 0x8c, 0x72, 0x8c, 0x6d, 0x89, 0x62, 0x8f, 0x56, 0x83,
  0x66, 0x7a, 0x66, 0x80, 0x66, 0x76, 0x61, 0x90, 0x83, 0x7b, 0x67, 0x8b,
  0x71, 0x7b, 0x67, 0x95, 0x88, 0x7a, 0x65, 0x7f, 0x84, 0x78, 0x6a, 0x87,
  0x76, 0x7c, 0x63, 0x91, 0x76, 0x7b, 0x5f, 0x94, 0x94, 0x79, 0x65, 0x93,
  0x7d, 0x6d, 0x71, 0xa2, 0x82, 0x71, 0x7a, 0x92, 0x6d, 0x80, 0x9f, 0x8c,
  0x65, 0xa3, 0x6f, 0x92, 0x7e, 0xa6, 0x7a, 0x85, 0x62, 0xa4, 0x64, 0x8e,
  0x5a, 0xa3, 0x80, 0x9a, 0x84, 0x96, 0x76, 0x90, 0x89, 0x8f, 0x71, 0x9d,
  0x88, 0x99, 0x73, 0x81, 0x6e, 0x83, 0x63, 0x85, 0x6e, 0x83, 0x6d, 0x7f,
  0x72, 0x7b, 0x67, 0x88, 0x6e, 0x75, 0x63, 0x8f, 0x76, 0x76, 0x67, 0x8a,
  0x89, 0x85, 0x64, 0x8f, 0x8b, 0x7e, 0x5f, 0x92, 0x8b, 0x82, 0x62, 0x9d,
  0x91, 0x76, 0x63, 0x99, 0x8e, 0x75, 0x6d, 0x88, 0x87, 0x69, 0x75, 0xa5,
  0x7b, 0x73, 0x7f, 0x81, 0x56, 0x7d, 0x99, 0x96, 0x5b, 0xa2, 0x79, 0x86,
  0x83, 0xaa, 0x82, 0x89, 0x67, 0xad, 0x78, 0x92, 0x61, 0xb0, 0x74, 0x90,
  0x76, 0x95, 0x7b, 0x91, 0x89, 0x9d, 0x73, 0x90, 0x7e, 0x88, 0x6d, 0xa9,
  0x65, 0x82, 0x5d, 0x88, 0x6c, 0x86, 0x6b, 0x86, 0x6f, 0x7d, 0x5f, 0x90,
  0x7f, 0x73, 0x6d, 0x8d, 0x75, 0x7f, 0x72, 0x85, 0x96, 0x87, 0x60, 0x93,
  0x90, 0x7c, 0x64, 0x85, 0x8c, 0x79, 0x59, 0x91, 0x92, 0x7a, 0x66, 0x89,
  0x7d, 0x6d, 0x67, 0x8a, 0x7a, 0x71, 0x79, 0x90, 0x63, 0x69, 0x7e, 0x82,
  0x59, 0x99, 0xab, 0x9e, 0x64, 0xa2, 0x96, 0x90, 0x7d, 0xb1, 0x81, 0x8e,
  0x63, 0xb4, 0x7f, 0x8f, 0x52, 0xae, 0x92, 0x9f, 0x6f, 0x99, 0x82, 0x8a,
  0x6e, 0x8e, 0x75, 0x9a, 0x74, 0x94, 0x76, 0x88, 0x60, 0x94, 0x63, 0x8c,
  0x5e, 0x82, 0x68, 0x8d, 0x73, 0x69, 0x6c, 0x9b, 0x7b, 0x76, 0x70, 0x8c,
  0x85, 0x72, 0x73, 0x9f, 0x87, 0x78, 0x72, 0x9b, 0x7d, 0x81, 0x62, 0x7b,
  0x77, 0x70, 0x67, 0xa9, 0x8a, 0x78, 0x6c, 0xa6, 0x93, 0x75, 0x6b, 0x78,
  0x93, 0x78, 0x78, 0xa5, 0x79, 0x5d, 0x7a, 0x8e, 0x66, 0x92, 0xb6, 0x95,
  0x5d, 0xb5, 0x95, 0xa2, 0x7a, 0xab, 0x93, 0x96, 0x60, 0xb8, 0x86, 0x9b,
  0x6f, 0xb3, 0x9a, 0x86, 0x72, 0x8e, 0x87, 0x88, 0x7e, 0x99, 0x94, 0x9f,
  0x7e, 0x9a, 0x79, 0xa6, 0x76, 0x90, 0x68, 0x8f, 0x6a, 0x7d, 0x89, 0xa7,
  0x67, 0x74, 0x6e, 0x89, 0x73, 0x7a, 0x6c, 0x93, 0x71, 0x6e, 0x74, 0x79,
  0x82, 0x7f, 0x80, 0x9e, 0x8c, 0x76, 0x71, 0x7a, 0x84, 0x76, 0x62, 0x99,
  0x79, 0x6e, 0x6e, 0x9a, 0x82, 0x6d, 0x6a, 0x88, 0x8e, 0x7c, 0x8a, 0x91,
  0x7a, 0x57, 0x8c, 0x8c, 0x65, 0x93, 0xae, 0x98, 0x6f, 0xb1, 0xb0, 0x9f,
  0x79, 0xad, 0x9f, 0x9d, 0x62, 0xbc, 0xa2, 0x9a, 0x58, 0xaa, 0xaa, 0xa8,
  0x6a, 0x9b, 0x9e, 0x89, 0x86, 0x99, 0x8c, 0x8c, 0x73, 0x9e, 0x7e, 0x9e,
  0x81, 0x9b, 0x73, 0x95, 0x58, 0x89, 0x81, 0x8e, 0x72, 0x71, 0x89, 0x94,
  0x5b, 0x6d, 0x78, 0x9e, 0x6b, 0x78, 0x87, 0x87, 0x78, 0x71, 0x7e, 0x88,
  0x84, 0x81, 0x72, 0x87, 0x91, 0x74, 0x7a, 0xa7, 0x8b, 0x7b, 0x76, 0xaf,
  0x83, 0x6d, 0x79, 0x8c, 0x8d, 0x73, 0x83, 0x99, 0x90, 0x52, 0x89, 0x7a,
  0x6a, 0x8e, 0xc4, 0xab, 0x61, 0xb1, 0xa1, 0x88, 0x8a, 0xb1, 0xa5, 0x9a,
  0x66, 0xbd, 0xa2, 0xa8, 0x5a, 0xb5, 0xb4, 0x9f, 0x70, 0xa6, 0x9f, 0xad,
  0x74, 0x87, 0x9f, 0x99, 0x73, 0xa3, 0x8a, 0x83, 0x5e, 0x97, 0x79, 0x94,
  0x61, 0x85, 0x8c, 0x90, 0x65, 0x6b, 0x84, 0x8d, 0x65, 0x79, 0x7d, 0x7a,
  0x66, 0x88, 0x91, 0x94, 0x85, 0x7b, 0x97, 0x8f, 0x85, 0x86, 0x83, 0x95,
  0x8c, 0x76, 0x72, 0x92, 0x88, 0x72, 0x7f, 0xa7, 0x78, 0x6c, 0x85, 0xa0,
  0x88, 0x6a, 0x90, 0x9b, 0x6b, 0x59, 0x93, 0x93, 0x69, 0xa0, 0xba, 0x8e,
  0x66, 0xa7, 0xad, 0x9d, 0x74, 0xcf, 0xa3, 0xa2, 0x60, 0xd5, 0xa1, 0xad,
  0x6d, 0xc4, 0xc9, 0x9f, 0x71, 0xac, 0xc2, 0x91, 0x67, 0xa4, 0x9d, 0x9c,
  0x71, 0xad, 0x91, 0x97, 0x6d, 0x99, 0x7c, 0x9e, 0x6f, 0x91, 0x94, 0xa2,
  0x6c, 0x71, 0x8b, 0x92, 0x79, 0x7b, 0x82, 0x84, 0x72, 0x78, 0x8c, 0x97,
  0x84, 0x6f, 0x7a, 0xa8, 0x83, 0x69, 0x78, 0x89, 0x71, 0x76, 0x75, 0x98,
  0x7c, 0x69, 0x75, 0x8a, 0x8b, 0x72, 0x8f, 0xa6, 0x93, 0x73, 0x8b, 0x97,
  0x7e, 0x59, 0x8f, 0x93, 0x7c, 0xa3, 0xcb, 0xab, 0x51, 0xc5, 0xab, 0x9a,
  0x6f, 0xdf, 0xa2, 0xa2, 0x6c, 0xd2, 0xab, 0xaa, 0x52, 0xd1, 0xd3, 0xaf,
  0x65, 0xc1, 0xc1, 0xa0, 0x6e, 0xb0, 0xac, 0x93, 0x77, 0xaa, 0x96, 0x9c,
  0x66, 0xa9, 0x7e, 0x97, 0x63, 0x93, 0x92, 0xa8, 0x60, 0x83, 0x82, 0x8a,
  0x6c, 0x82, 0x90, 0x90, 0x67, 0x79, 0x8c, 0x89, 0x85, 0x7a, 0x89, 0x8b,
  0x82, 0x7f, 0x85, 0xa1, 0x8c, 0x7d, 0x6c, 0x80, 0x85, 0x72, 0x82, 0xb8,
  0x96, 0x7d, 0x93, 0xa1, 0x7c, 0x7a, 0x91, 0x99, 0x88, 0x54, 0x93, 0x8d,
  0x52, 0xb3, 0xe9, 0xb1, 0x4c, 0xd0, 0xb3, 0x96, 0x70, 0xe2, 0xaa, 0xa5,
  0x5b, 0xff, 0x9e, 0xa7, 0x5a, 0xe5, 0xb8, 0xb3, 0x53, 0xc3, 0xbb, 0xab,
  0x75, 0xbd, 0xa2, 0xa5, 0x76, 0xcb, 0x86, 0x7b, 0x6d, 0xbe, 0x70, 0x85,
  0x67, 0xaa, 0x97, 0x86, 0x78, 0x8c, 0x7d, 0x7c, 0x73, 0x88, 0x7b, 0x76,
  0x78, 0x87, 0x80, 0x76, 0x86, 0x8e, 0x7e, 0x7c, 0x7c, 0x88, 0x78, 0x91,
  0x82, 0x7b, 0x5c, 0x92, 0x8f, 0x87, 0x67, 0x9d, 0x7a, 0x7e, 0x7b, 0x9b,
  0x90, 0x75, 0x82, 0x8e, 0x72, 0x6e, 0x8b, 0x93, 0x8c, 0xa4, 0xe9, 0x66,
  0x8a, 0x9e, 0x8a, 0x72, 0x9b, 0xac, 0x91, 0x7e, 0x9e, 0xbe, 0xac, 0x77,
  0x9a, 0x95, 0xab, 0x65, 0x95, 0xa2, 0xa6, 0x7b, 0x95, 0x9a, 0x8f, 0x62,
  0x8e, 0x98, 0x89, 0x84, 0x8a, 0xa6, 0x78, 0x7f, 0x81, 0x98, 0x9d, 0x8e,
  0x90, 0x78, 0x7c, 0x70, 0x82, 0x74, 0x77, 0x68, 0x85, 0x99, 0x6f, 0x82,
  0x8a, 0x8f, 0x78, 0x79, 0xa1, 0x76, 0x6f, 0x84, 0x8f, 0x88, 0x77, 0x82,
  0x96, 0x68, 0x6e, 0x7b, 0x97, 0x7b, 0x7a, 0x88, 0x9c, 0x6d, 0x83, 0x80,
  0x7a, 0x73, 0x7d, 0x6e, 0x59, 0x8d, 0x95, 0x85, 0x7b, 0x7b, 0x89, 0x80,
  0x67, 0x7d, 0x91, 0x77, 0x82, 0x8a, 0x9d, 0x76, 0x82, 0x6c, 0x9b, 0x7a,
  0x7a, 0x91, 0x8c, 0x80, 0x7d, 0x73, 0x9d, 0x8b, 0x83, 0x7b, 0x90, 0x7f,
  0x88, 0x91, 0x86, 0x83, 0x65, 0x74, 0x8f, 0x8a, 0x87, 0x7f, 0x8e, 0x7e,
  0x7f, 0x8a, 0x9b, 0x7d, 0x8b, 0x76, 0x9c, 0x8c, 0x6c, 0x82, 0x8e, 0x76,
  0x84, 0x88, 0x96, 0x86, 0x6e, 0xa2, 0x99, 0x89, 0x5e, 0x98, 0x98, 0x84,
  0x78, 0x92, 0x97, 0x8d, 0x79, 0xa0, 0x93, 0x86, 0x72, 0x7a, 0xae, 0x85,
  0x6e, 0x87, 0x8c, 0x70, 0x8a, 0x81, 0x93, 0x8b, 0x6c, 0x83, 0xa1, 0x78,
  0x8a, 0x6b, 0xa8, 0x7e, 0x6a, 0x7a, 0xa6, 0x6e, 0x7e, 0x6d, 0xa3, 0x6c,
  0x72, 0x89, 0x9e, 0x87, 0x7e, 0x63, 0x97, 0x6e, 0x79, 0x7e, 0x99, 0x7b,
  0x81, 0x89, 0x91, 0x7a, 0x7a, 0x87, 0x92, 0x83, 0x73, 0x77, 0xa5, 0x7d,
  0x74, 0x7c, 0x9e, 0x72, 0x78, 0x78, 0x9e, 0x7c, 0x74, 0x76, 0x91, 0x72,
  0x81, 0x93, 0x9b, 0x7f, 0x74, 0x7b, 0xa1, 0x7c, 0x83, 0x8a, 0x95, 0x77,
  0x7a, 0x8f, 0x9a, 0x75, 0x60, 0x7b, 0xae, 0x84, 0x80, 0x8b, 0x93, 0x6c,
  0x70, 0x6e, 0x8b, 0x71, 0x7d, 0x9a, 0x9e, 0x85, 0x7c, 0x89, 0x9b, 0x66,
  0x7c, 0x72, 0x98, 0x67, 0x77, 0x6e, 0x9a, 0x6f, 0x72, 0x6d, 0x98, 0x66,
  0x7a, 0x75, 0xa0, 0x83, 0x76, 0x7c, 0x95, 0x74, 0x70, 0x7d, 0x94, 0x7b,
  0x76, 0x74, 0x9a, 0x78, 0x78, 0x6f, 0x99, 0x6f, 0x8a, 0x6b, 0x98, 0x72,
  0x73, 0x7a, 0x97, 0x74, 0x84, 0x73, 0xa4, 0x6a, 0x83, 0x6c, 0xa0, 0x73,
  0x6f, 0x5d, 0x93, 0x87, 0x88, 0x81, 0x9d, 0x81, 0x89, 0x77, 0xa2, 0x6f,
  0x93, 0x6d, 0xad, 0x78, 0x77, 0x85, 0x8b, 0x7e, 0x8d, 0x69, 0x86, 0x72,
  0x7d, 0x7a, 0x9b, 0x73, 0x7f, 0x7e, 0x98, 0x75, 0x79, 0x7c, 0x96, 0x77,
  0x8a, 0x83, 0x96, 0x73, 0x7e, 0x62, 0x8e, 0x6f, 0x7b, 0x6d, 0x9d, 0x6b,
  0x70, 0x68, 0x90, 0x5b, 0x7c, 0x80, 0x8b, 0x76, 0x7a, 0x7d, 0x8f, 0x7c,
  0x7d, 0x63, 0x92, 0x6f, 0x8b, 0x82, 0x9e, 0x64, 0x87, 0x65, 0xa1, 0x7e,
  0x78, 0x75, 0xa4, 0x84, 0x7e, 0x80, 0x9a, 0x78, 0x80, 0x65, 0x9e, 0x86,
  0x8b, 0x7a, 0x8a, 0x78, 0x9d, 0x6a, 0x99, 0x78, 0x8e, 0x5a, 0xa8, 0x8b,
  0x8a, 0x96, 0x8b, 0x75, 0x86, 0x72, 0x93, 0x72, 0x7e, 0x7e, 0x9b, 0x80,
  0x88, 0x7f, 0xa7, 0x6e, 0x7e, 0x75, 0x8e, 0x65, 0x79, 0x81, 0x98, 0x65,
  0x7f, 0x76, 0x98, 0x6c, 0x78, 0x6c, 0x98, 0x68, 0x7b, 0x7f, 0x91, 0x72,
  0x74, 0x74, 0x8e, 0x7d, 0x7d, 0x76, 0xa5, 0x6f, 0x81, 0x77, 0x9b, 0x7a,
  0x7d, 0x74, 0xa2, 0x66, 0x7f, 0x75, 0x9e, 0x6b, 0x75, 0x6d, 0x9b, 0x73,
  0x6c, 0x7b, 0x9a, 0x6e, 0x89, 0x81, 0x9e, 0x71, 0x8e, 0x7e, 0x92, 0x77,
  0x99, 0x81, 0x90, 0x8d, 0x89, 0x90, 0xa7, 0x83, 0x80, 0x8b, 0x9f, 0x74,
  0x8f, 0x78, 0x8a, 0x77, 0x7a, 0x71, 0xa5, 0x6b, 0x86, 0x74, 0xa6, 0x7e,
  0x7a, 0x77, 0x98, 0x72, 0x82, 0x79, 0x9b, 0x6f, 0x86, 0x6e, 0x9f, 0x6d,
  0x78, 0x74, 0xa5, 0x6a, 0x6e, 0x7a, 0xa4, 0x77, 0x7c, 0x63, 0x91, 0x74,
  0x82, 0x81, 0x9e, 0x75, 0x7e, 0x73, 0x9e, 0x71, 0x66, 0x75, 0xa1, 0x6f,
  0x73, 0x72, 0x9e, 0x82, 0x70, 0x7f, 0x9f, 0x7a, 0x64, 0x81, 0xa8, 0x84,
  0x73, 0x77, 0xa5, 0x83, 0x87, 0x79, 0xa0, 0x71, 0x80, 0x87, 0x9e, 0x7f,
  0x8d, 0x73, 0xa0, 0x62, 0x86, 0x8f, 0x8b, 0x75, 0x92, 0x85, 0x80, 0x6a,
  0x86, 0x7d, 0xa8, 0x65, 0x92, 0x7e, 0xa1, 0x69, 0x7a, 0x75, 0x93, 0x6f,
  0x6b, 0x84, 0x95, 0x76, 0x89, 0x7a, 0x8d, 0x72, 0x7c, 0x71, 0x9a, 0x75,
  0x7c, 0x7c, 0xa8, 0x7a, 0x69, 0x7a, 0x96, 0x6d, 0x83, 0x79, 0xa4, 0x6c,
  0x72, 0x7e, 0xa7, 0x77, 0x69, 0x82, 0xa0, 0x6e, 0x7b, 0x7a, 0x9e, 0x7c,
  0x78, 0x87, 0xa1, 0x82, 0x77, 0x7c, 0xa8, 0x77, 0x78, 0x82, 0xa5, 0x6b,
  0x8a, 0x83, 0x9a, 0x7a, 0x7b, 0x7d, 0xa4, 0x6c, 0x80, 0x82, 0x9d, 0x79,
  0x73, 0x8f, 0x89, 0x7c, 0x94, 0x7c, 0x8a, 0x7c, 0x76, 0x88, 0x9c, 0x6d,
  0x95, 0x78, 0xa5, 0x75, 0x8b, 0x84, 0x8f, 0x74, 0x67, 0x6e, 0x95, 0x79,
  0x91, 0x86, 0x9f, 0x6a, 0x91, 0x7f, 0x98, 0x79, 0x87, 0x81, 0x9b, 0x77,
  0x81, 0x87, 0x95, 0x72, 0x81, 0x7f, 0xa4, 0x87, 0x6d, 0x79, 0x9e, 0x7e,
  0x69, 0x75, 0x9e, 0x81, 0x67, 0x7b, 0xa4, 0x74, 0x74, 0x84, 0x9b, 0x7c,
  0x74, 0x86, 0xa1, 0x76, 0x6a, 0x7c, 0xa5, 0x6a, 0x8e, 0x7e, 0x9e, 0x7b,
  0x7c, 0x7c, 0x90, 0x67, 0x78, 0x8e, 0x97, 0x7f, 0x7d, 0x8f, 0x99, 0x77,
  0x88, 0x87, 0x96, 0x6c, 0x82, 0x7f, 0xa9, 0x6a, 0x8d, 0x79, 0xa4, 0x7f,
  0x73, 0x87, 0x90, 0x6c, 0x61, 0x8d, 0xa4, 0x7b, 0x8a, 0x7e, 0x89, 0x6d,
  0x95, 0x82, 0x92, 0x78, 0x81, 0x88, 0x92, 0x7e, 0x7a, 0x7a, 0x9f, 0x71,
  0x83, 0x65, 0x9e, 0x7d, 0x6b, 0x8a, 0x98, 0x80, 0x6d, 0x85, 0x95, 0x68,
  0x71, 0x7f, 0x9a, 0x74, 0x87, 0x7f, 0xa9, 0x7c, 0x73, 0x84, 0x9b, 0x74,
  0x5f, 0x78, 0xa3, 0x74, 0x81, 0x8b, 0x99, 0x67, 0x8d, 0x7e, 0x9c, 0x71,
  0x70, 0x8a, 0x94, 0x7d, 0x7f, 0x94, 0x97, 0x78, 0x79, 0x8c, 0x92, 0x7f,
  0x7f, 0x75, 0xac, 0x7b, 0x81, 0x79, 0x9b, 0x7a, 0x80, 0x8a, 0x94, 0x7b,
  0x6d, 0x7b, 0x94, 0x77, 0x81, 0x85, 0x90, 0x6d, 0xa0, 0x85, 0x99, 0x74,
  0x73, 0x82, 0xa0, 0x75, 0x7c, 0x87, 0xa2, 0x77, 0x74, 0x7d, 0xa3, 0x7a,
  0x80, 0x82, 0x9e, 0x75, 0x6e, 0x80, 0x9e, 0x6b, 0x77, 0x7f, 0xa0, 0x7f,
  0x72, 0x89, 0xa4, 0x71, 0x73, 0x8e, 0xa1, 0x7f, 0x5b, 0x8b, 0xa6, 0x6e,
  0x80, 0x8a, 0x97, 0x68, 0x75, 0x82, 0x8a, 0x70, 0x6c, 0x81, 0x94, 0x6e,
  0x76, 0x8e, 0x94, 0x71, 0x89, 0x77, 0x91, 0x7e, 0x85, 0x76, 0xa3, 0x73,
  0x91, 0x7a, 0xa7, 0x74, 0x7b, 0x83, 0x96, 0x7d, 0x65, 0x7f, 0x94, 0x72,
  0x82, 0x89, 0x97, 0x82, 0x91, 0x88, 0x8e, 0x80, 0x71, 0x80, 0x9b, 0x75,
  0x72, 0x72, 0x98, 0x78, 0x74, 0x72, 0x9b, 0x72, 0x6d, 0x7e, 0x99, 0x7d,
  0x6f, 0x85, 0x95, 0x7b, 0x71, 0x89, 0xa0, 0x7f, 0x6b, 0x7d, 0x9a, 0x6b,
  0x6f, 0x7b, 0x99, 0x6d, 0x6c, 0x88, 0xa0, 0x65, 0x81, 0x80, 0x8b, 0x79,
  0x7e, 0x86, 0x8b, 0x6f, 0x77, 0x88, 0x8c, 0x7d, 0x7f, 0x89, 0x9f, 0x7a,
  0x80, 0x76, 0x93, 0x6c, 0x82, 0x6e, 0xa7, 0x78, 0x94, 0x8a, 0x9d, 0x6e,
  0x7c, 0x81, 0x97, 0x74, 0x63, 0x84, 0x97, 0x7d, 0x8e, 0x88, 0x96, 0x78,
  0x9b, 0x8d, 0x90, 0x6c, 0x81, 0x82, 0xa3, 0x75, 0x83, 0x80, 0x8c, 0x75,
  0x84, 0x7c, 0x98, 0x70, 0x85, 0x88, 0xa2, 0x7b, 0x78, 0x8b, 0x94, 0x6f,
  0x73, 0x80, 0x9e, 0x71, 0x6f, 0x7b, 0x9f, 0x6b, 0x6e, 0x88, 0x9c, 0x6a,
  0x69, 0x86, 0x98, 0x70, 0x74, 0x7d, 0x8f, 0x72, 0x6f, 0x7d, 0x90, 0x69,
  0x66, 0x82, 0x88, 0x6d, 0x7f, 0x84, 0xa3, 0x71, 0x86, 0x67, 0x8b, 0x79,
  0x85, 0x7a, 0xa3, 0x6a, 0x92, 0x77, 0xa0, 0x77, 0x85, 0x85, 0x9d, 0x82,
  0x56, 0x80, 0x9b, 0x7d, 0x87, 0x8f, 0x9a, 0x6c, 0xa7, 0x8c, 0x97, 0x82,
  0x93, 0x80, 0xa5, 0x80, 0x77, 0x7a, 0xa4, 0x77, 0x7c, 0x7a, 0x9c, 0x74,
  0x83, 0x7a, 0x9c, 0x74, 0x69, 0x87, 0x9c, 0x76, 0x6b, 0x8e, 0x9c, 0x77,
  0x78, 0x86, 0xa0, 0x6d, 0x73, 0x90, 0x95, 0x72, 0x6e, 0x7e, 0x93, 0x6a,
  0x6f, 0x78, 0x8e, 0x6e, 0x75, 0x84, 0x84, 0x74, 0x53, 0x7e, 0x8d, 0x68,
  0x95, 0x89, 0xa3, 0x6c, 0x7b, 0x7a, 0x8c, 0x73, 0x8e, 0x7d, 0x9f, 0x7e,
  0x8f, 0x86, 0x9b, 0x77, 0x6d, 0x8d, 0xa5, 0x7b, 0x62, 0x78, 0x90, 0x74,
  0x87, 0x98, 0x93, 0x73, 0x8a, 0x9b, 0x8f, 0x7c, 0x99, 0x8a, 0xa3, 0x79,
  0x86, 0x85, 0x97, 0x7c, 0x85, 0x7c, 0x9d, 0x79, 0x7b, 0x78, 0x9b, 0x73,
  0x6c, 0x7d, 0xa1, 0x6e, 0x74, 0x82, 0x8e, 0x68, 0x74, 0x8e, 0x95, 0x70,
  0x68, 0x85, 0x9e, 0x74, 0x5f, 0x82, 0xa4, 0x6c, 0x6f, 0x78, 0x92, 0x72,
  0x6e, 0x73, 0x80, 0x67, 0x58, 0x7e, 0x91, 0x5e, 0x7c, 0x91, 0xb5, 0x63,
  0x76, 0x72, 0x8b, 0x69, 0x89, 0x6c, 0xac, 0x7c, 0x89, 0x7b, 0xa3, 0x76,
  0x7a, 0x8f, 0x98, 0x79, 0x5a, 0x81, 0x95, 0x81, 0x90, 0x8f, 0x99, 0x70,
  0x9f, 0x98, 0x9b, 0x7a, 0x8f, 0x8a, 0xad, 0x7c, 0x6d, 0x7e, 0x97, 0x7a,
  0x7a, 0x7a, 0xa3, 0x71, 0x71, 0x7d, 0xa4, 0x7c, 0x63, 0x84, 0x9c, 0x77,
  0x78, 0x84, 0x8f, 0x6c, 0x79, 0x81, 0x97, 0x68, 0x61, 0x8c, 0x9a, 0x66,
  0x65, 0x87, 0x9e, 0x5b, 0x6d, 0x87, 0x91, 0x67, 0x64, 0x74, 0x81, 0x63,
  0x6f, 0x7b, 0x87, 0x66, 0x79, 0x80, 0xb1, 0x66, 0x86, 0x7f, 0x90, 0x72,
  0x88, 0x75, 0xa5, 0x78, 0x92, 0x83, 0xa1, 0x81, 0x7a, 0x90, 0xa8, 0x88,
  0x65, 0x87, 0x9b, 0x66, 0x86, 0x93, 0x9b, 0x75, 0xa9, 0x94, 0xa4, 0x7a,
  0x8b, 0x87, 0xa7, 0x75, 0x75, 0x84, 0xa2, 0x88, 0x78, 0x86, 0xad, 0x63,
  0x76, 0x82, 0xa8, 0x76, 0x70, 0x7e, 0xa2, 0x67, 0x71, 0x8c, 0x87, 0x71,
  0x82, 0x8b, 0x93, 0x6c, 0x6d, 0x8f, 0x9a, 0x68, 0x6c, 0x86, 0x9b, 0x5d,
  0x70, 0x7f, 0x98, 0x5c, 0x64, 0x79, 0x84, 0x72, 0x56, 0x7d, 0x8a, 0x59,
  0x78, 0x78, 0xa8, 0x6e, 0x73, 0x80, 0x96, 0x67, 0x84, 0x6a, 0xb2, 0x76,
  0x8a, 0x83, 0xb2, 0x6d, 0x82, 0x92, 0x9a, 0x82, 0x6a, 0x83, 0x9c, 0x66,
  0x8a, 0x9a, 0x98, 0x85, 0x9e, 0x8b, 0x9e, 0x87, 0x83, 0x7d, 0xa9, 0x83,
  0x7f, 0x86, 0xac, 0x7e, 0x84, 0x84, 0xa8, 0x7b, 0x7f, 0x86, 0xa7, 0x77,
  0x6d, 0x8b, 0xa7, 0x68, 0x6c, 0x91, 0x95, 0x78, 0x73, 0x85, 0x95, 0x67,
  0x74, 0x8b, 0x95, 0x5b, 0x71, 0x87, 0x8b, 0x66, 0x6d, 0x7b, 0x90, 0x5d,
  0x65, 0x78, 0x7c, 0x5a, 0x59, 0x81, 0x91, 0x65, 0x6a, 0x8e, 0xbd, 0x69,
  0x7a, 0x75, 0xa7, 0x63, 0x80, 0x71, 0xb6, 0x6c, 0x91, 0x88, 0xbb, 0x7f,
  0x77, 0x8d, 0xb3, 0x81, 0x63, 0x89, 0xaf, 0x6f, 0x8a, 0x8f, 0xa2, 0x7b,
  0x8b, 0x92, 0xac, 0x68, 0x86, 0x92, 0xb8, 0x7a, 0x6f, 0x81, 0xb4, 0x82,
  0x7f, 0x7c, 0xb0, 0x85, 0x81, 0x86, 0xb4, 0x6e, 0x78, 0x7d, 0xa9, 0x7b,
  0x64, 0x7e, 0xac, 0x7b, 0x7b, 0x9a, 0x94, 0x75, 0x60, 0x83, 0x98, 0x6d,
  0x72, 0x88, 0x9e, 0x72, 0x61, 0x81, 0x8f, 0x5e, 0x62, 0x83, 0x81, 0x65,
  0x5e, 0x75, 0x89, 0x5f, 0x77, 0x8a, 0xbe, 0x5c, 0x78, 0x74, 0xac, 0x61,
  0x87, 0x6d, 0xc4, 0x76, 0x8e, 0x91, 0xbe, 0x71, 0x86, 0x9f, 0xb3, 0x80,
  0x6f, 0x6e, 0xab, 0x76, 0x89, 0x8e, 0xb8, 0x85, 0xa3, 0x9f, 0xb1, 0x7c,
  0x8a, 0x91, 0xbb, 0x8a, 0x79, 0x81, 0xcb, 0x7a, 0x8a, 0x80, 0xb2, 0x7a,
  0x77, 0x8d, 0xa9, 0x75, 0x6d, 0x7d, 0x9f, 0x6e, 0x5f, 0x78, 0xa6, 0x7c,
  0x7c, 0x7e, 0xa1, 0x68, 0x6b, 0x85, 0x9a, 0x5e, 0x6b, 0x83, 0x98, 0x6b,
  0x59, 0x77, 0x98, 0x6d, 0x6b, 0x82, 0x92, 0x5d, 0x6c, 0x76, 0x9e, 0x60,
  0x75, 0x8c, 0xad, 0x66, 0x8e, 0x76, 0xb8, 0x68, 0x85, 0x65, 0xc8, 0x67,
  0x8f, 0x8d, 0xcd, 0x73, 0x7c, 0x8e, 0xbd, 0x77, 0x72, 0x86, 0xc1, 0x7e,
  0x8c, 0x88, 0xbc, 0x62, 0x94, 0xa3, 0xb0, 0x8e, 0x98, 0x8f, 0xc9, 0x83,
  0x6d, 0x87, 0xc3, 0x84, 0x90, 0x7e, 0xbf, 0x7a, 0x6d, 0x81, 0xb6, 0x8d,
  0x76, 0x79, 0xb2, 0x6c, 0x68, 0x7c, 0xb1, 0x6a, 0x7e, 0x88, 0xa9, 0x5f,
  0x74, 0x7d, 0xaf, 0x6e, 0x70, 0x8b, 0x9d, 0x69, 0x66, 0x7b, 0x96, 0x55,
  0x65, 0x83, 0x8d, 0x53, 0x57, 0x6f, 0xa0, 0x6a, 0x7a, 0x88, 0xbb, 0x6d,
  0x87, 0x70, 0xb5, 0x60, 0x8b, 0x5f, 0xc7, 0x63, 0x91, 0x8d, 0xcf, 0x74,
  0x81, 0x9f, 0xc5, 0x77, 0x6f, 0x87, 0xc1, 0x8b, 0x8a, 0x7c, 0xc9, 0x6c,
  0x9c, 0x97, 0xc4, 0x85, 0x85, 0x94, 0xca, 0x7f, 0x74, 0x88, 0xcf, 0x6e,
  0x89, 0x77, 0xbb, 0x70, 0x81, 0x88, 0xbb, 0x82, 0x6a, 0x8e, 0xb9, 0x75,
  0x6c, 0x78, 0xae, 0x6a, 0x7d, 0x83, 0xbb, 0x60, 0x75, 0x84, 0xb3, 0x6b,
  0x65, 0x7c, 0xa1, 0x6d, 0x59, 0x80, 0x90, 0x64, 0x60, 0x71, 0x96, 0x56,
  0x5f, 0x73, 0xa7, 0x60, 0x73, 0x86, 0xab, 0x5e, 0x81, 0x5f, 0xb3, 0x56,
  0x79, 0x64, 0xc4, 0x6e, 0x96, 0x91, 0xc8, 0x78, 0x85, 0x9a, 0xc6, 0x7f,
  0x85, 0x7e, 0xcb, 0x7f, 0x83, 0x87, 0xc0, 0x74, 0x98, 0x95, 0xc6, 0x88,
  0x95, 0x86, 0xc6, 0x8d, 0x7c, 0x88, 0xd3, 0x78, 0x91, 0x73, 0xb3, 0x71,
  0x7e, 0x86, 0xb2, 0x71, 0x75, 0x7a, 0xb3, 0x76, 0x7d, 0x6e, 0x95, 0x76,
  0x82, 0x74, 0xaf, 0x69, 0x6b, 0x7b, 0xad, 0x69, 0x67, 0x7d, 0x94, 0x57,
  0x6a, 0x7b, 0xa2, 0x5c, 0x78, 0x7c, 0x99, 0x5b, 0x67, 0x6d, 0x9c, 0x58,
  0x8a, 0x78, 0xa6, 0x60, 0x8c, 0x61, 0x9f, 0x58, 0x82, 0x5d, 0xb6, 0x62,
  0x94, 0x7e, 0xb2, 0x6b, 0x90, 0x9d, 0xbf, 0x74, 0x89, 0x80, 0xc7, 0x95,
  0x95, 0x8a, 0xbe, 0x79, 0xb0, 0x98, 0xc2, 0x8d, 0x90, 0x8e, 0xc4, 0x76,
  0x79, 0x83, 0xc0, 0x8f, 0x88, 0x74, 0xb5, 0x7a, 0x88, 0x82, 0xb7, 0x71,
  0x73, 0x77, 0xb6, 0x7e, 0x7e, 0x69, 0x9a, 0x6c, 0x7b, 0x78, 0xac, 0x6c,
  0x83, 0x75, 0x9f, 0x67, 0x6a, 0x7d, 0xa6, 0x5e, 0x76, 0x80, 0x9c, 0x54,
  0x6c, 0x78, 0x96, 0x56, 0x68, 0x68, 0x9d, 0x65, 0x8a, 0x68, 0x81, 0x51,
  0x90, 0x4d, 0x9d, 0x54, 0x9a, 0x39, 0xa1, 0x57, 0xa0, 0x73, 0x9a, 0x67,
  0xa4, 0x8f, 0x9c, 0x83, 0x89, 0x69, 0xae, 0x80, 0x9c, 0x7f, 0xb1, 0x8f,
  0xaf, 0x90, 0xb0, 0x6f, 0x9e, 0x8d, 0xb8, 0x77, 0x80, 0x75, 0xbc, 0x73,
  0x9b, 0x70, 0xb2, 0x75, 0x93, 0x81, 0x9c, 0x79, 0x8f, 0x78, 0xaf, 0x68,
  0x85, 0x6a, 0x9f, 0x66, 0x7b, 0x73, 0xa2, 0x66, 0x82, 0x6c, 0x9b, 0x68,
  0x69, 0x84, 0x92, 0x57, 0x6c, 0x79, 0x7e, 0x55, 0x84, 0x6f, 0x89, 0x6b,
  0x78, 0x66, 0x84, 0x72, 0xc3, 0x72, 0x3d, 0x7d, 0xac, 0x56, 0x5b, 0x73,
  0xb1, 0x5c, 0x60, 0x73, 0xb3, 0x58, 0x68, 0x79, 0xc6, 0x8e, 0x8e, 0x70,
  0xb4, 0x78, 0x93, 0x8c, 0xb0, 0x6c, 0x82, 0x8f, 0xbd, 0x7d, 0x89, 0x76,
  0xad, 0x84, 0x8d, 0x76, 0x9d, 0x7e, 0x90, 0x86, 0xa1, 0x64, 0x72, 0x6e,
  0xa5, 0x7d, 0x77, 0x88, 0x91, 0x7b, 0x7a, 0x6d, 0x9e, 0x82, 0x72, 0x6e,
  0xaa, 0x7a, 0x70, 0x7d, 0x9a, 0x81, 0x7d, 0x74, 0x8f, 0x7d, 0x79, 0x7d,
  0x99, 0x78, 0x69, 0x84, 0xa4, 0x63, 0x6a, 0x66, 0x91, 0x64, 0x7a, 0x68,
  0x5f, 0x8d, 0x90, 0x88, 0x5f, 0x8b, 0x91, 0x80, 0x88, 0x92, 0x8d, 0x83,
  0x74, 0x98, 0x9d, 0x84, 0x71, 0x8e, 0x9f, 0x7b, 0x8e, 0x8e, 0x99, 0x81,
  0x6f, 0x7b, 0xa1, 0x90, 0x87, 0x87, 0x98, 0x83, 0x7f, 0x8e, 0x94, 0x85,
  0x71, 0x88, 0xa0, 0x84, 0x75, 0x91, 0x99, 0x86, 0x80, 0x94, 0x99, 0x89,
  0x67, 0x84, 0x9a, 0x82, 0x91, 0x80, 0x8f, 0x74, 0x70, 0x8f, 0x9f, 0x99,
  0x7b, 0x88, 0xa2, 0x88, 0x84, 0x8e, 0xa1, 0x8e, 0x7b, 0x80, 0x92, 0x84,
  0x5f, 0x93, 0x98, 0x8a, 0x7b, 0x61, 0xaa, 0x84, 0x74, 0x8d, 0x8e, 0x7c,
  0x7d, 0x7b, 0x97, 0x88, 0x7e, 0x87, 0xa7, 0x7d, 0x6d, 0x80, 0xaa, 0x84,
  0x6c, 0x95, 0xa6, 0x77, 0x67, 0x76, 0xb2, 0x76, 0x7e, 0x67, 0xaa, 0x91,
  0x78, 0x7e, 0x99, 0x80, 0x82, 0x8b, 0xa3, 0x7a, 0x79, 0x65, 0xa8, 0x77,
  0x7b, 0x8c, 0xa6, 0x90, 0x72, 0x87, 0xa8, 0x85, 0x71, 0x90, 0xa4, 0x84,
  0x88, 0x74, 0xa2, 0x80, 0x82, 0x79, 0x9c, 0x80, 0x70, 0x81, 0xa5, 0x8f,
  0x75, 0x6c, 0xa6, 0x75, 0x87, 0x84, 0x9d, 0x7b, 0x83, 0x78, 0x9b, 0x7f,
  0x8f, 0x73, 0xac, 0x83, 0x79, 0x8a, 0x95, 0x59, 0x78, 0x77, 0x98, 0x81,
  0x72, 0x79, 0xa5, 0x75, 0x7f, 0x73, 0x9f, 0x5b, 0x7d, 0x68, 0xa1, 0x6d,
  0x79, 0x74, 0xa4, 0x6b, 0x80, 0x75, 0xa5, 0x69, 0x81, 0x81, 0x99, 0x84,
  0x69, 0x7b, 0x9e, 0x65, 0x71, 0x72, 0xad, 0x78, 0x74, 0x7e, 0xa4, 0x89,
  0x80, 0x83, 0x9e, 0x8c, 0x7e, 0x78, 0xa6, 0x7c, 0x6e, 0x89, 0xa7, 0x76,
  0x92, 0x6f, 0xa3, 0x96, 0x8a, 0x82, 0x9e, 0x7f, 0x67, 0x80, 0xa1, 0x82,
  0x71, 0x78, 0xa8, 0x79, 0x7e, 0x8a, 0xa8, 0x73, 0x69, 0x60, 0xac, 0x61,
  0x7a, 0x87, 0x8a, 0x85, 0x7f, 0x6f, 0x89, 0x64, 0x82, 0x7f, 0x97, 0x78,
  0x99, 0x8f, 0x9b, 0x5a, 0x95, 0x7f, 0x9b, 0x71, 0x7f, 0x84, 0xa6, 0x65,
  0x77, 0x72, 0x98, 0x63, 0x86, 0x71, 0x86, 0x64, 0x75, 0x6e, 0x93, 0x7b,
  0x7f, 0x79, 0xa0, 0x81, 0x6c, 0x67, 0x95, 0x87, 0x66, 0x6f, 0x8c, 0x7c,
  0x6f, 0x6e, 0x99, 0x7c, 0x7c, 0x74, 0xa9, 0x7c, 0x96, 0x79, 0xa0, 0x92,
  0x89, 0x86, 0x9c, 0x81, 0x71, 0x72, 0xa5, 0x86, 0x67, 0x6e, 0xa6, 0x75,
  0x7a, 0x6a, 0xa5, 0x75, 0x63, 0x71, 0xa6, 0x69, 0x8b, 0x94, 0x8c, 0x6b,
  0x83, 0x84, 0x97, 0x69, 0x9e, 0x87, 0x8d, 0x79, 0xb4, 0x87, 0x96, 0x64,
  0x9b, 0x82, 0x8d, 0x5c, 0x86, 0x81, 0x98, 0x68, 0x76, 0x73, 0x97, 0x5e,
  0x7a, 0x80, 0x7a, 0x66, 0x7f, 0x81, 0x85, 0x75, 0x75, 0x6a, 0x9b, 0x7e,
  0x69, 0x6b, 0xa0, 0x76, 0x67, 0x7c, 0x96, 0x6d, 0x68, 0x69, 0x9e, 0x7c,
  0x6e, 0x74, 0x96, 0x67, 0x7f, 0x68, 0x95, 0x71, 0x70, 0x81, 0x94, 0x76,
  0x7e, 0x74, 0x94, 0x7f, 0x72, 0x79, 0xa1, 0x80, 0x73, 0x6e, 0x93, 0x88,
  0x63, 0x6d, 0xaa, 0x8b, 0x81, 0x8c, 0x9e, 0x76, 0x82, 0x86, 0x8c, 0x74,
  0xa1, 0x79, 0x84, 0x62, 0xb6, 0x7c, 0x87, 0x69, 0xa3, 0x83, 0x89, 0x68,
  0x92, 0x77, 0x9c, 0x6d, 0x70, 0x6f, 0x93, 0x66, 0x72, 0x85, 0x6d, 0x5e,
  0x85, 0x80, 0x83, 0x74, 0x73, 0x69, 0x9b, 0x6f, 0x60, 0x8b, 0x98, 0x7f,
  0x64, 0x7c, 0x89, 0x7c, 0x68, 0x68, 0x9a, 0x85, 0x6d, 0x76, 0x94, 0x82,
  0x75, 0x7b, 0x8c, 0x82, 0x68, 0x78, 0x92, 0x70, 0x79, 0x6e, 0x92, 0x7c,
  0x68, 0x6c, 0x98, 0x6d, 0x62, 0x7f, 0x9c, 0x92, 0x75, 0x73, 0x9f, 0x6c,
  0x83, 0x8d, 0x90, 0x7c, 0x88, 0x94, 0x87, 0x69, 0xa5, 0x7c, 0x77, 0x67,
  0xc0, 0x78, 0x74, 0x52, 0xa1, 0x75, 0x82, 0x69, 0x89, 0x85, 0x8f, 0x7a,
  0x71, 0x7d, 0x88, 0x69, 0x6c, 0x7f, 0x75, 0x6c, 0x96, 0x7d, 0x80, 0x68,
  0x75, 0x7c, 0x9d, 0x6a, 0x65, 0x80, 0xa0, 0x78, 0x5d, 0x83, 0x90, 0x80,
  0x6b, 0x7c, 0x9c, 0x76, 0x71, 0x78, 0x9a, 0x81, 0x81, 0x7e, 0x90, 0x82,
  0x81, 0x78, 0x97, 0x71, 0x7f, 0x71, 0x92, 0x6d, 0x6b, 0x71, 0x97, 0x87,
  0x60, 0x70, 0x9e, 0x86, 0x6f, 0x64, 0x9b, 0x82, 0x76, 0x87, 0x8f, 0x82,
  0x8b, 0x7e, 0x8f, 0x83, 0xb1, 0x7b, 0x62, 0x6a, 0xce, 0x77, 0x6a, 0x5e,
  0xb9, 0x80, 0x85, 0x62, 0x88, 0x74, 0x93, 0x67, 0x75, 0x8b, 0x95, 0x5b,
  0x86, 0x86, 0x6c, 0x6c, 0x91, 0x8c, 0x7a, 0x5f, 0x8d, 0x87, 0x97, 0x74,
  0x6b, 0x90, 0x93, 0x83, 0x5a, 0x81, 0x8b, 0x85, 0x68, 0x78, 0x9f, 0x86,
  0x68, 0x86, 0x97, 0x7e, 0x71, 0x87, 0x82, 0x82, 0x7f, 0x85, 0x95, 0x70,
  0x81, 0x75, 0x8f, 0x80, 0x6d, 0x76, 0x93, 0x84, 0x5d, 0x6a, 0x9a, 0x6d,
  0x76, 0x5d, 0x9b, 0x8a, 0x83, 0x86, 0x90, 0x74, 0x86, 0x79, 0x8f, 0x68,
  0xa6, 0x6d, 0x64, 0x5a, 0xc3, 0x70, 0x6b, 0x63, 0x9d, 0x73, 0x79, 0x58,
  0x83, 0x84, 0xa2, 0x66, 0x75, 0x8d, 0x82, 0x63, 0x7b, 0x90, 0x6a, 0x65,
  0x95, 0x82, 0x75, 0x6f, 0x86, 0x77, 0x96, 0x6f, 0x71, 0x78, 0x8d, 0x87,
  0x53, 0x97, 0x88, 0x7f, 0x67, 0x87, 0x95, 0x77, 0x78, 0x8a, 0x87, 0x87,
  0x8a, 0x80, 0x8c, 0x87, 0x82, 0x83, 0x8b, 0x7a, 0x79, 0x75, 0x93, 0x89,
  0x73, 0x81, 0x9c, 0x6f, 0x83, 0x70, 0x9d, 0x81, 0x76, 0x46, 0x99, 0x82,
  0x7a, 0x8b, 0x7f, 0x75, 0x7b, 0x84, 0x8d, 0x81, 0xa6, 0x69, 0x63, 0x6b,
  0xb5, 0x76, 0x5a, 0x59, 0xb8, 0x7a, 0x7f, 0x6e, 0x8f, 0x81, 0x8d, 0x6d,
  0x6d, 0x8c, 0x87, 0x60, 0x96, 0x88, 0x6b, 0x6b, 0x87, 0x7f, 0x85, 0x63,
  0x86, 0x88, 0x97, 0x79, 0x64, 0x8f, 0x8d, 0x88, 0x63, 0x8d, 0x8f, 0x7e,
  0x6b, 0x83, 0x91, 0x78, 0x79, 0x7c, 0x8f, 0x81, 0x70, 0x81, 0x83, 0x7e,
  0x86, 0x81, 0x95, 0x88, 0x75, 0x8a, 0x93, 0x80, 0x78, 0x7f, 0x95, 0x77,
  0x81, 0x7e, 0x91, 0x84, 0x84, 0x4e, 0x99, 0x85, 0x78, 0x83, 0x76, 0x77,
  0x88, 0x6a, 0x86, 0x7a, 0xa8, 0x67, 0x50, 0x5d, 0xd5, 0x6b, 0x68, 0x57,
  0xae, 0x78, 0x6c, 0x62, 0x97, 0x7e, 0x83, 0x75, 0x70, 0x90, 0x8a, 0x71,
  0x7f, 0x88, 0x63, 0x6d, 0x7f, 0x7b, 0x7a, 0x63, 0x76, 0x6a, 0x90, 0x73,
  0x6d, 0x86, 0x83, 0x7c, 0x54, 0x8d, 0x8f, 0x89, 0x6d, 0x81, 0x83, 0x83,
  0x75, 0x8d, 0x88, 0x92, 0x6f, 0x78, 0x7d, 0x85, 0x89, 0x74, 0x89, 0x84,
  0x94, 0x83, 0x8e, 0x77, 0x85, 0x82, 0x85, 0x88, 0x8e, 0x81, 0x91, 0x8e,
  0x90, 0x4a, 0x94, 0x8e, 0x78, 0x7e, 0x6f, 0x6e, 0x78, 0x6a, 0x84, 0x6e,
  0xa9, 0x65, 0x5a, 0x66, 0xce, 0x72, 0x5a, 0x52, 0xbf, 0x70, 0x70, 0x5b,
  0x96, 0x84, 0x8b, 0x69, 0x78, 0x92, 0x8b, 0x6f, 0x8a, 0x96, 0x62, 0x62,
  0x88, 0x88, 0x7e, 0x66, 0x85, 0x80, 0x8c, 0x6a, 0x77, 0x87, 0x8c, 0x76,
  0x62, 0x95, 0x91, 0x87, 0x77, 0x8d, 0x82, 0x82, 0x7a, 0x89, 0x89, 0x84,
  0x79, 0x80, 0x88, 0x7a, 0x90, 0x85, 0x92, 0x89, 0x88, 0x82, 0x89, 0x7f,
  0x7b, 0x83, 0x8a, 0x8d, 0x7f, 0x80, 0x95, 0x89, 0x93, 0x4d, 0x90, 0x91,
  0x77, 0x79, 0x7a, 0x68, 0x83, 0x58, 0x84, 0x81, 0xa5, 0x69, 0x4d, 0x55,
  0xcc, 0x6f, 0x5f, 0x60, 0xbb, 0x6f, 0x72, 0x60, 0x85, 0x83, 0x89, 0x70,
  0x7f, 0x96, 0x8e, 0x6b, 0x8d, 0x94, 0x70, 0x74, 0x96, 0x74, 0x87, 0x75,
  0x80, 0x76, 0x8b, 0x78, 0x78, 0x90, 0x88, 0x7a, 0x68, 0x90, 0x8b, 0x8e,
  0x65, 0x85, 0x87, 0x82, 0x7b, 0x93, 0x91, 0x8d, 0x80, 0x79, 0x8a, 0x85,
  0x92, 0x82, 0x89, 0x8a, 0x91, 0x80, 0x80, 0x7d, 0x85, 0x82, 0x89, 0x8d,
  0x8d, 0x8b, 0x97, 0x94, 0x90, 0x58, 0x95, 0x96, 0x92, 0x79, 0x72, 0x6b,
  0x78, 0x68, 0x85, 0x7d, 0xb4, 0x6c, 0x4e, 0x67, 0xbf, 0x75, 0x5d, 0x54,
  0xa4, 0x6e, 0x7b, 0x54, 0x91, 0x83, 0x92, 0x62, 0x72, 0xa3, 0x8d, 0x6f,
  0x85, 0x9e, 0x6a, 0x6b, 0x9d, 0x7e, 0x77, 0x6c, 0x84, 0x7c, 0x7c, 0x76,
  0x7a, 0x90, 0x89, 0x80, 0x5f, 0x90, 0x86, 0x8d, 0x75, 0x7b, 0x8f, 0x82,
  0x7d, 0x82, 0x89, 0x8c, 0x82, 0x92, 0x81, 0x8d, 0x88, 0x7c, 0x94, 0x8d,
  0x81, 0x87, 0x8f, 0x81, 0x8e, 0x81, 0x90, 0x8e, 0x8d, 0x89, 0x8e, 0x90,
  0x9f, 0x68, 0x9b, 0x92, 0x75, 0x7f, 0x79, 0x70, 0x7e, 0x66, 0x89, 0x6e,
  0xa8, 0x68, 0x5d, 0x64, 0xc0, 0x64, 0x5d, 0x5d, 0xaf, 0x6a, 0x69, 0x59,
  0x90, 0x7b, 0x8d, 0x69, 0x76, 0x9b, 0x96, 0x77, 0x7e, 0x90, 0x72, 0x65,
  0x96, 0x79, 0x78, 0x68, 0x77, 0x77, 0x89, 0x65, 0x6b, 0x8b, 0x8f, 0x88,
  0x58, 0x87, 0x8a, 0x8e, 0x61, 0x7e, 0x8a, 0x96, 0x84, 0x8d, 0x82, 0x86,
  0x86, 0x82, 0x92, 0x92, 0x87, 0x82, 0x93, 0x87, 0x87, 0x8e, 0x8b, 0x83,
  0x91, 0x88, 0x88, 0x90, 0x7b, 0x7b, 0xa2, 0x87, 0xa7, 0x69, 0x97, 0x8f,
  0x75, 0x74, 0x83, 0x6b, 0x80, 0x6e, 0x8f, 0x80, 0xab, 0x71, 0x53, 0x66,
  0xc3, 0x76, 0x63, 0x5b, 0xaf, 0x6a, 0x80, 0x66, 0x90, 0x80, 0x99, 0x61,
  0x77, 0xa1, 0x9a, 0x7a, 0x94, 0x97, 0x82, 0x5b, 0x8f, 0x6c, 0x83, 0x54,
  0x85, 0x77, 0x88, 0x71, 0x64, 0x93, 0x94, 0x7b, 0x5a, 0x8b, 0x93, 0x8d,
  0x75, 0x86, 0x9a, 0x7b, 0x7e, 0x86, 0x84, 0x86, 0x91, 0x80, 0x80, 0x98,
  0x96, 0x89, 0x8c, 0x94, 0x8f, 0x92, 0x87, 0x90, 0x97, 0x83, 0x96, 0x85,
  0x81, 0x83, 0xa2, 0x9d, 0x9a, 0x65, 0x9d, 0x8d, 0x77, 0x70, 0x79, 0x75,
  0x78, 0x69, 0x99, 0x74, 0xa5, 0x6e, 0x61, 0x72, 0xbe, 0x73, 0x67, 0x49,
  0xb0, 0x64, 0x6e, 0x60, 0x91, 0x7f, 0xa3, 0x61, 0x78, 0xac, 0x9a, 0x82,
  0x8d, 0x90, 0x7a, 0x6e, 0x88, 0x5a, 0x7b, 0x5d, 0x8f, 0x76, 0x87, 0x6e,
  0x6f, 0x96, 0x95, 0x91, 0x6d, 0x8a, 0x95, 0x88, 0x71, 0x82, 0x9b, 0x8c,
  0x83, 0x8a, 0x8b, 0x7e, 0x7e, 0x82, 0x8e, 0x8e, 0x93, 0x88, 0x82, 0x81,
  0x8f, 0x91, 0x87, 0x8a, 0x91, 0x82, 0x8c, 0x84, 0x81, 0x83, 0x95, 0x85,
  0x94, 0x76, 0x9e, 0x9d, 0x6c, 0x7e, 0x8f, 0x70, 0x79, 0x64, 0xa5, 0x7b,
  0xab, 0x69, 0x6d, 0x5e, 0xbb, 0x6b, 0x71, 0x68, 0xa8, 0x61, 0x8c, 0x66,
  0x8e, 0x7d, 0xa4, 0x63, 0x80, 0x9e, 0x9b, 0x7a, 0x7e, 0x95, 0x8e, 0x69,
  0x8b, 0x65, 0x8e, 0x68, 0x80, 0x6c, 0x8d, 0x69, 0x76, 0x84, 0x9e, 0x88,
  0x6a, 0x8d, 0xa0, 0x82, 0x7c, 0x73, 0xa0, 0x88, 0x78, 0x82, 0x9a, 0x95,
  0x8b, 0x8d, 0x8f, 0x8f, 0x84, 0x7e, 0x8d, 0x99, 0x95, 0x8d, 0x8b, 0x8f,
  0x8a, 0x8f, 0x8b, 0x89, 0x7f, 0x90, 0x95, 0x9a, 0x96, 0x7b, 0x98, 0x9f,
  0x7f, 0x7d, 0x8a, 0x80, 0x6a, 0x6b, 0x9c, 0x74, 0xad, 0x70, 0x7a, 0x69,
  0xba, 0x74, 0x73, 0x5e, 0xad, 0x67, 0x91, 0x61, 0x95, 0x6e, 0xaf, 0x60,
  0x82, 0xa7, 0xb2, 0x83, 0x8c, 0x9e, 0x8e, 0x74, 0x8a, 0x60, 0x92, 0x6c,
  0x90, 0x6a, 0x9d, 0x70, 0x80, 0x80, 0xa4, 0x6d, 0x5d, 0x90, 0xa0, 0x7e,
  0x6b, 0x77, 0x9f, 0x78, 0x77, 0x7f, 0xa2, 0x93, 0x90, 0x7b, 0x9b, 0x8f,
  0x8e, 0x82, 0x8b, 0x90, 0x90, 0x81, 0x89, 0x94, 0x87, 0x82, 0x95, 0x99,
  0x86, 0x8d, 0x9e, 0x92, 0xaa, 0x79, 0xaa, 0x93, 0x7c, 0x7f, 0x96, 0x81,
  0x78, 0x5f, 0xac, 0x85, 0xa6, 0x66, 0x7e, 0x58, 0xb9, 0x69, 0x8f, 0x5a,
  0x9e, 0x58, 0xa3, 0x6e, 0x98, 0x75, 0xbc, 0x76, 0x92, 0xa8, 0xa8, 0x7f,
  0x7a, 0x96, 0x92, 0x6e, 0x9e, 0x59, 0xa1, 0x5f, 0x8a, 0x71, 0x8f, 0x74,
  0x83, 0x82, 0xb0, 0x7f, 0x5b, 0x85, 0xac, 0x93, 0x7d, 0x73, 0xac, 0x84,
  0x88, 0x84, 0xa8, 0x8a, 0x8c, 0x89, 0x9e, 0x92, 0x95, 0x74, 0xa4, 0x95,
  0x94, 0x95, 0x96, 0x9b, 0x90, 0x87, 0x92, 0x90, 0x86, 0x92, 0xa2, 0x90,
  0x93, 0x78, 0xae, 0x9b, 0x76, 0x70, 0x9b, 0x89, 0x73, 0x6d, 0xa8, 0x6d,
  0xaf, 0x5e, 0x8a, 0x72, 0xb9, 0x62, 0x9e, 0x54, 0xa1, 0x5b, 0xaa, 0x60,
  0x98, 0x6f, 0xbe, 0x84, 0x8e, 0x97, 0xba, 0x83, 0x7c, 0x94, 0xa4, 0x7a,
  0x93, 0x55, 0xac, 0x5d, 0x8b, 0x6c, 0xa5, 0x5c, 0x8a, 0x7e, 0xab, 0x7c,
  0x77, 0x8a, 0xb0, 0x99, 0x6f, 0x7f, 0xba, 0x76, 0x80, 0x85, 0xb8, 0x93,
  0x8c, 0x7d, 0xa7, 0x94, 0x8e, 0x83, 0xa0, 0x96, 0x8e, 0x8a, 0x9a, 0x9e,
  0x86, 0x84, 0x90, 0x99, 0x7e, 0x7f, 0xa4, 0x90, 0x93, 0x85, 0xb1, 0x9d,
  0x7a, 0x71, 0x93, 0x84, 0x69, 0x5a, 0xac, 0x75, 0x98, 0x5a, 0x90, 0x6d,
  0xc2, 0x65, 0x96, 0x6f, 0xa9, 0x54, 0xbb, 0x67, 0xa9, 0x7d, 0xd4, 0x73,
  0x8b, 0xa9, 0xb5, 0x7e, 0x7e, 0x92, 0xb8, 0x7a, 0x93, 0x4c, 0xa2, 0x6d,
  0x99, 0x5e, 0xa5, 0x6b, 0x94, 0x7c, 0xa2, 0x70, 0x74, 0x85, 0xb3, 0x86,
  0x7f, 0x72, 0xb3, 0x79, 0x8d, 0x76, 0x9a, 0x9f, 0x93, 0x6c, 0xa6, 0x8a,
  0x88, 0x79, 0xa4, 0x94, 0x88, 0x76, 0x87, 0x8e, 0x9a, 0x86, 0x9d, 0x90,
  0x90, 0x78, 0xa5, 0x92, 0x93, 0x7f, 0xa3, 0x8c, 0x86, 0x70, 0x8a, 0x89,
  0x78, 0x61, 0xa3, 0x80, 0xa6, 0x5e, 0x84, 0x7c, 0xb5, 0x5e, 0x9b, 0x64,
  0x9e, 0x61, 0xa6, 0x63, 0xa5, 0x71, 0xbe, 0x89, 0xa2, 0xa0, 0xb7, 0x82,
  0x80, 0x8c, 0xad, 0x73, 0x96, 0x4c, 0xa0, 0x5b, 0x94, 0x58, 0x98, 0x74,
  0x91, 0x82, 0xa1, 0x77, 0x7d, 0x7f, 0xb4, 0x75, 0x7e, 0x63, 0xab, 0x80,
  0x90, 0x78, 0xa5, 0x82, 0x90, 0x6c, 0x9a, 0x99, 0xa5, 0x78, 0xa7, 0x94,
  0x8e, 0x7d, 0x9e, 0x9e, 0x94, 0x8c, 0x98, 0x8f, 0x81, 0x83, 0xa6, 0x94,
  0x8d, 0x79, 0xab, 0x84, 0x83, 0x6d, 0x7a, 0x85, 0x8b, 0x7c, 0x91, 0x84,
  0xb0, 0x68, 0x8a, 0x78, 0xb0, 0x5f, 0x8a, 0x5d, 0xa8, 0x6a, 0x91, 0x70,
  0xa9, 0x7e, 0xa4, 0x88, 0xa4, 0xa2, 0xb6, 0x8f, 0x82, 0x88, 0xb8, 0x68,
  0x9a, 0x4a, 0x98, 0x52, 0x98, 0x5a, 0x8a, 0x63, 0xa0, 0x78, 0x9f, 0x6d,
  0x86, 0x81, 0xa2, 0x90, 0x96, 0x69, 0x9d, 0x85, 0x91, 0x79, 0xa2, 0x86,
  0xa0, 0x74, 0x99, 0x92, 0x9b, 0x71, 0xa1, 0x9c, 0x93, 0x8d, 0x83, 0x8e,
  0x95, 0x7e, 0x83, 0x9b, 0x96, 0x7c, 0x9a, 0x9a, 0x7f, 0x7c, 0x9b, 0x99,
  0xc8, 0x6f, 0x71, 0x88, 0xb8, 0x6c, 0x72, 0x67, 0xca, 0x63, 0x76, 0x67,
  0xc9, 0x7d, 0x6b, 0x66, 0xcd, 0x79, 0x76, 0x5e, 0xd1, 0x85, 0x7e, 0x80,
  0xc3, 0xa3, 0x90, 0x6f, 0xa1, 0x6d, 0x92, 0x74, 0xa8, 0x5a, 0x78, 0x7d,
  0xa6, 0x68, 0x5f, 0x6e, 0xb0, 0x7a, 0x6d, 0x76, 0x9e, 0x8a, 0x87, 0x92,
  0xa6, 0x86, 0x72, 0x8b, 0xa7, 0x7f, 0x78, 0x82, 0xc1, 0x73, 0x72, 0x92,
  0xac, 0x79, 0x8e, 0x78, 0xad, 0x77, 0x88, 0x82, 0xae, 0x80, 0x8c, 0x78,
  0xa8, 0x6f, 0x89, 0x7f, 0x8f, 0x7c, 0x92, 0x7e, 0x69, 0x88, 0x98, 0x8d,
  0x71, 0x8d, 0x9a, 0x8a, 0x81, 0xa7, 0x9f, 0x82, 0x7f, 0x8d, 0xac, 0x89,
  0x7c, 0x8c, 0x9b, 0x79, 0x77, 0x92, 0x95, 0x89, 0x88, 0x7e, 0xa2, 0x81,
  0x79, 0x91, 0x9f, 0x8c, 0x73, 0x8c, 0x92, 0x8e, 0x7b, 0x82, 0xa5, 0x81,
  0x8b, 0x83, 0xa7, 0x90, 0x80, 0x8a, 0xa9, 0x77, 0x71, 0x88, 0x9c, 0x82,
  0x88, 0x85, 0x9a, 0x74, 0x80, 0x76, 0xa1, 0x95, 0x7f, 0x86, 0xa0, 0x7a,
  0x73, 0x8e, 0x93, 0x91, 0x6a, 0x7f, 0x93, 0x84, 0x84, 0x9a, 0x9c, 0x81,
  0x90, 0x68, 0xa6, 0x8b, 0x75, 0x80, 0x90, 0x80, 0x75, 0x5e, 0x9c, 0x88,
  0x81, 0x78, 0xa1, 0x7b, 0x65, 0x82, 0xa7, 0x8f, 0x67, 0x64, 0xaa, 0x7a,
  0x79, 0x96, 0xb0, 0x71, 0x7c, 0x74, 0xa5, 0x8d, 0x78, 0x73, 0xa1, 0x77,
  0x75, 0x76, 0x9a, 0x84, 0x85, 0x6b, 0xa3, 0x73, 0x64, 0x76, 0x9f, 0x7a,
  0x84, 0x69, 0xa3, 0x87, 0x79, 0x80, 0xa2, 0x79, 0x8a, 0x69, 0x9e, 0x84,
  0x78, 0x6c, 0x92, 0x79, 0x70, 0x81, 0x95, 0x85, 0x85, 0x91, 0x95, 0x75,
  0x80, 0x81, 0x95, 0x74, 0x82, 0x8e, 0x8d, 0x81, 0x7b, 0x90, 0xad, 0x7c,
  0x79, 0x88, 0x95, 0x6d, 0x62, 0x5e, 0x98, 0x6e, 0x72, 0x7e, 0x94, 0x74,
  0x63, 0x78, 0xa5, 0x72, 0x7b, 0x7c, 0xa1, 0x80, 0x7c, 0x85, 0xa2, 0x76,
  0x80, 0x96, 0x97, 0x7b, 0x88, 0x8d, 0xa1, 0x73, 0xa6, 0x75, 0x9f, 0x7a,
  0x93, 0x9b, 0xa8, 0x84, 0x7f, 0x6a, 0xaf, 0x72, 0x7c, 0x7e, 0xa9, 0x7b,
  0x65, 0x8a, 0xa0, 0x82, 0x6c, 0x81, 0x9e, 0x73, 0x80, 0x65, 0xa2, 0x68,
  0x82, 0x64, 0x93, 0x77, 0x7b, 0x82, 0x8d, 0x7f, 0x80, 0x84, 0x97, 0x6c,
  0x89, 0x82, 0x92, 0x78, 0x66, 0x78, 0xac, 0x6d, 0x6b, 0x87, 0x90, 0x77,
  0x7e, 0x7c, 0x8e, 0x84, 0x66, 0x7c, 0xa5, 0x72, 0x63, 0x81, 0xa1, 0x84,
  0x73, 0x73, 0xa9, 0x7c, 0x71, 0x71, 0xa3, 0x76, 0x85, 0x7d, 0x99, 0x80,
  0xa1, 0x8a, 0x92, 0x75, 0xa8, 0x88, 0x8b, 0x61, 0xa8, 0x7d, 0x91, 0x6c,
  0x98, 0x76, 0xa0, 0x7e, 0x8e, 0x6f, 0x9e, 0x5e, 0x6c, 0x8f, 0x9f, 0x67,
  0x79, 0x74, 0xa7, 0x82, 0x84, 0x70, 0x97, 0x62, 0x79, 0x77, 0x88, 0x81,
  0x6b, 0x77, 0x94, 0x73, 0x7c, 0x7b, 0x8a, 0x89, 0x82, 0x70, 0x8b, 0x70,
  0x75, 0x6e, 0xa5, 0x80, 0x81, 0x92, 0x88, 0x88, 0x79, 0x8c, 0x9f, 0x6f,
  0x63, 0x81, 0x9d, 0x8a, 0x59, 0x78, 0xaf, 0x82, 0x6d, 0x74, 0xa4, 0x69,
  0x6a, 0x88, 0xa2, 0x7a, 0x76, 0x79, 0xa0, 0x72, 0xa7, 0x74, 0x85, 0x74,
  0xb6, 0x82, 0x82, 0x6a, 0xbe, 0x73, 0x95, 0x66, 0xad, 0x6e, 0xa9, 0x67,
  0x9e, 0x76, 0x99, 0x66, 0x6c, 0x6f, 0x9b, 0x63, 0x6c, 0x5b, 0x9a, 0x62,
  0x64, 0x66, 0x85, 0x54, 0x75, 0x76, 0x82, 0x6b, 0x65, 0x6c, 0x8d, 0x74,
  0x7a, 0x78, 0x88, 0x71, 0x80, 0x84, 0x80, 0x7e, 0x87, 0x88, 0xa6, 0x6b,
  0x79, 0x82, 0x8d, 0x74, 0x77, 0x84, 0x99, 0x7e, 0x52, 0x7e, 0xab, 0x77,
  0x3d, 0x76, 0xb5, 0x8a, 0x6b, 0x71, 0xad, 0x74, 0x6d, 0x86, 0xa6, 0x7a,
  0x73, 0x6d, 0x96, 0x7a, 0x9f, 0x76, 0x78, 0x62, 0xae, 0x84, 0x77, 0x71,
  0xb1, 0x67, 0x82, 0x6c, 0xaa, 0x77, 0x9d, 0x52, 0xaa, 0x74, 0x92, 0x54,
  0x67, 0x79, 0x98, 0x75, 0x65, 0x70, 0x9d, 0x78, 0x68, 0x73, 0x85, 0x6b,
  0x69, 0x74, 0x84, 0x5c, 0x6d, 0x6e, 0x90, 0x7e, 0x6b, 0x73, 0x83, 0x62,
  0x6a, 0x87, 0x82, 0x68, 0x67, 0x7c, 0x9e, 0x61, 0x7f, 0x85, 0x7c, 0x85,
  0x7f, 0x93, 0x86, 0x73, 0x59, 0x77, 0xa1, 0x85, 0x33, 0x84, 0xa9, 0x6c,
  0x64, 0x7d, 0xa5, 0x75, 0x5f, 0x85, 0x9f, 0x88, 0x67, 0x7f, 0x82, 0x78,
  0x9b, 0x75, 0x74, 0x64, 0xbe, 0x7d, 0x71, 0x67, 0xb8, 0x7a, 0x82, 0x5c,
  0xaf, 0x72, 0x9f, 0x53, 0xa7, 0x78, 0x89, 0x64, 0x7a, 0x7f, 0x9b, 0x5d,
  0x69, 0x77, 0x94, 0x79, 0x80, 0x80, 0x85, 0x6e, 0x82, 0x7a, 0x8a, 0x5e,
  0x61, 0x7b, 0x93, 0x58, 0x74, 0x82, 0x7f, 0x76, 0x65, 0x7f, 0x89, 0x5d,
  0x83, 0x79, 0x9a, 0x7c, 0x74, 0x88, 0x72, 0x7e, 0x89, 0x83, 0x93, 0x87,
  0x56, 0x87, 0xa1, 0x82, 0x45, 0x7b, 0xb2, 0x71, 0x6f, 0x82, 0xae, 0x7b,
  0x5a, 0x7a, 0xa6, 0x78, 0x6c, 0x92, 0x8a, 0x65, 0xb0, 0x82, 0x68, 0x5e,
  0xc3, 0x86, 0x65, 0x5d, 0xc3, 0x8b, 0x7a, 0x5f, 0xac, 0x78, 0x8b, 0x5e,
  0xab, 0x7e, 0x84, 0x5f, 0x7f, 0x7c, 0x9d, 0x73, 0x64, 0x83, 0x9a, 0x6c,
  0x7b, 0x80, 0x87, 0x64, 0x8f, 0x7c, 0x88, 0x71, 0x68, 0x75, 0x93, 0x69,
  0x6e, 0x7d, 0x81, 0x68, 0x63, 0x71, 0x82, 0x67, 0x73, 0x6e, 0x95, 0x65,
  0x80, 0x8a, 0x74, 0x71, 0x8b, 0x83, 0x91, 0x69, 0x4e, 0x7c, 0xa5, 0x77,
  0x2e, 0x6f, 0xaf, 0x74, 0x53, 0x7b, 0xad, 0x7b, 0x55, 0x8a, 0xb0, 0x73,
  0x61, 0x91, 0x7b, 0x6b, 0xa4, 0x8c, 0x5b, 0x5a, 0xbd, 0x87, 0x55, 0x55,
  0xc4, 0x81, 0x72, 0x54, 0xad, 0x65, 0x7c, 0x58, 0xa4, 0x83, 0x81, 0x56,
  0x82, 0x91, 0x90, 0x65, 0x76, 0x8d, 0x8c, 0x6c, 0x9a, 0x7d, 0x8a, 0x6b,
  0x81, 0x7e, 0x86, 0x7a, 0x64, 0x78, 0x94, 0x80, 0x6d, 0x87, 0x90, 0x65,
  0x72, 0x7a, 0x88, 0x69, 0x72, 0x67, 0x91, 0x6b, 0x81, 0x8c, 0x69, 0x6f,
  0x7e, 0x8b, 0x90, 0x81, 0x52, 0x6d, 0xac, 0x81, 0x19, 0x73, 0xac, 0x7d,
  0x61, 0x76, 0xab, 0x78, 0x5b, 0x83, 0xa4, 0x81, 0x52, 0x8b, 0x83, 0x63,
  0xb1, 0x81, 0x69, 0x5a, 0xb7, 0x82, 0x5f, 0x49, 0xc1, 0x91, 0x70, 0x5a,
  0xa5, 0x7b, 0x78, 0x54, 0xb3, 0x7a, 0x88, 0x59, 0x86, 0x83, 0x8e, 0x5e,
  0x7e, 0x84, 0x8b, 0x79, 0x8a, 0x8a, 0x89, 0x6f, 0x82, 0x83, 0x8d, 0x84,
  0x6a, 0x83, 0x9a, 0x74, 0x7e, 0x88, 0x8b, 0x65, 0x6a, 0x88, 0x85, 0x6d,
  0x7b, 0x59, 0x91, 0x77, 0x7b, 0x8a, 0x60, 0x6c, 0x8d, 0x76, 0x8a, 0x83,
  0x4c, 0x77, 0xa2, 0x7f, 0x35, 0x68, 0xaf, 0x70, 0x5f, 0x75, 0xa7, 0x85,
  0x61, 0x80, 0x9d, 0x85, 0x53, 0x8d, 0x83, 0x7f, 0xa4, 0x91, 0x52, 0x62,
  0xa8, 0x82, 0x52, 0x3f, 0xb1, 0x7e, 0x67, 0x4f, 0xa8, 0x74, 0x6c, 0x49,
  0x9d, 0x7a, 0x81, 0x58, 0x8e, 0x8a, 0x88, 0x69, 0x7d, 0x93, 0x88, 0x7b,
  0x85, 0x7e, 0x7c, 0x69, 0x82, 0x76, 0x8f, 0x76, 0x81, 0x8c, 0x94, 0x72,
  0x7b, 0x84, 0x82, 0x80, 0x73, 0x8b, 0x8f, 0x72, 0x85, 0x5e, 0x8d, 0x7f,
  0x83, 0x83, 0x5e, 0x72, 0x7e, 0x76, 0x83, 0x6e, 0x48, 0x6c, 0xa9, 0x82,
  0x38, 0x73, 0xa5, 0x72, 0x6b, 0x68, 0xa4, 0x75, 0x5c, 0x82, 0xaa, 0x7b,
  0x60, 0x8b, 0x84, 0x6b, 0xac, 0x8c, 0x63, 0x59, 0xba, 0x8d, 0x53, 0x4f,
  0xbd, 0x7d, 0x62, 0x50, 0xb9, 0x76, 0x6b, 0x49, 0xb3, 0x82, 0x82, 0x5a,
  0x94, 0x99, 0x86, 0x64, 0x87, 0x91, 0x8f, 0x6b, 0x92, 0x84, 0x8c, 0x6a,
  0x86, 0x86, 0x8c, 0x82, 0x7c, 0x85, 0x92, 0x85, 0x7b, 0x8b, 0x83, 0x7f,
  0x6e, 0x81, 0x91, 0x79, 0x76, 0x66, 0x88, 0x7a, 0x80, 0x85, 0x5c, 0x71,
  0x8b, 0x6f, 0x7e, 0x7d, 0x4a, 0x71, 0xa1, 0x73, 0x28, 0x62, 0xab, 0x7f,
  0x66, 0x6e, 0xa3, 0x79, 0x41, 0x85, 0xac, 0x85, 0x5d, 0x8f, 0x8e, 0x69,
  0xab, 0x88, 0x65, 0x5f, 0xc3, 0x84, 0x5c, 0x53, 0xbb, 0x80, 0x69, 0x5b,
  0xac, 0x7a, 0x74, 0x45, 0xb9, 0x81, 0x7e, 0x5f, 0x86, 0x97, 0x90, 0x78,
  0x85, 0x95, 0x99, 0x76, 0xa0, 0x88, 0x8c, 0x6b, 0x8b, 0x85, 0x88, 0x87,
  0x82, 0x80, 0x91, 0x83, 0x75, 0x89, 0x7e, 0x7c, 0x77, 0x89, 0x97, 0x7c,
  0x5e, 0x64, 0x90, 0x8a, 0x9f, 0x7f, 0x5b, 0x61, 0x83, 0x7b, 0x75, 0x77,
  0x4f, 0x69, 0xa0, 0x7d, 0x19, 0x68, 0xa8, 0x78, 0x52, 0x6f, 0xaa, 0x79,
  0x56, 0x83, 0xa8, 0x7f, 0x60, 0x9a, 0x8e, 0x75, 0x9c, 0x9a, 0x60, 0x58,
  0xc6, 0x8c, 0x51, 0x56, 0xc2, 0x81, 0x57, 0x50, 0xb1, 0x7c, 0x6d, 0x56,
  0xb0, 0x7e, 0x71, 0x5b, 0x85, 0x8c, 0x91, 0x73, 0x8a, 0x89, 0x92, 0x7b,
  0x9b, 0x96, 0x7f, 0x70, 0x7f, 0x81, 0x8c, 0x86, 0x79, 0x88, 0x9d, 0x7e,
  0x8a, 0x82, 0x81, 0x88, 0x7c, 0x83, 0x8c, 0x80, 0x6a, 0x71, 0x94, 0x7e,
  0x85, 0x83, 0x57, 0x6a, 0x85, 0x7c, 0x8c, 0x68, 0x4a, 0x6b, 0xae, 0x7a,
  0x1d, 0x56, 0xa8, 0x7f, 0x5f, 0x71, 0xa3, 0x80, 0x46, 0x82, 0xad, 0x80,
  0x61, 0x94, 0x97, 0x70, 0xa5, 0x93, 0x61, 0x63, 0xbd, 0x8e, 0x54, 0x45,
  0xb0, 0x7c, 0x54, 0x4d, 0xa7, 0x72, 0x77, 0x52, 0xac, 0x78, 0x76, 0x69,
  0x80, 0x95, 0x85, 0x82, 0x8f, 0x93, 0x92, 0x75, 0x9c, 0x8b, 0x8f, 0x79,
  0x89, 0x83, 0x8e, 0x7e, 0x78, 0x89, 0x96, 0x80, 0x8c, 0x87, 0x85, 0x7f,
  0x72, 0x7d, 0x96, 0x71, 0x7c, 0x73, 0x8d, 0x87, 0x8c, 0x7a, 0x54, 0x61,
  0x8c, 0x80, 0x86, 0x80, 0x52, 0x6b, 0xa5, 0x75, 0x23, 0x56, 0xb2, 0x82,
  0x5c, 0x6b, 0xbd, 0x89, 0x4d, 0x87, 0xb0, 0x6b, 0x62, 0x90, 0x9d, 0x85,
  0xae, 0x8a, 0x73, 0x4e, 0xbe, 0x81, 0x60, 0x4b, 0xb1, 0x82, 0x63, 0x49,
  0xa1, 0x71, 0x7d, 0x48, 0xad, 0x80, 0x78, 0x50, 0x94, 0x95, 0x96, 0x6c,
  0x8d, 0x99, 0x94, 0x80, 0xaa, 0x94, 0x87, 0x79, 0x95, 0x84, 0x98, 0x86,
  0x7d, 0x82, 0x96, 0x82, 0x8d, 0x86, 0x80, 0x7a, 0x76, 0x84, 0x9d, 0x82,
  0x6a, 0x82, 0x94, 0x72, 0x86, 0x6a, 0x4c, 0x75, 0x83, 0x7e, 0x90, 0x70,
  0x4a, 0x6e, 0xb0, 0x7d, 0x27, 0x54, 0xc1, 0x71, 0x60, 0x6f, 0xab, 0x8e,
  0x4f, 0x83, 0xb6, 0x71, 0x60, 0x97, 0x97, 0x8c, 0xa6, 0x84, 0x69, 0x5e,
  0xb4, 0x7c, 0x55, 0x49, 0xbd, 0x76, 0x69, 0x43, 0xa1, 0x72, 0x7a, 0x56,
  0xb7, 0x7b, 0x75, 0x66, 0x8a, 0xa0, 0x98, 0x74, 0x8c, 0x9a, 0x99, 0x74,
  0x9b, 0x91, 0x9a, 0x75, 0x8c, 0x7a, 0x8c, 0x7f, 0x84, 0x84, 0x9d, 0x7b,
  0x8d, 0x82, 0x84, 0x76, 0x80, 0x7e, 0x92, 0x71, 0x73, 0x86, 0x97, 0x87,
  0x7f, 0x86, 0x64, 0x6d, 0x86, 0x79, 0x94, 0x6d, 0x4f, 0x61, 0xb1, 0x73,
  0x2c, 0x4a, 0xc4, 0x73, 0x52, 0x69, 0xc1, 0x88, 0x50, 0x81, 0xb7, 0x80,
  0x66, 0x8e, 0x9c, 0x7e, 0x9d, 0x89, 0x7b, 0x63, 0xb8, 0x85, 0x6b, 0x51,
  0xb2, 0x6f, 0x66, 0x52, 0xa5, 0x5d, 0x90, 0x4b, 0xb5, 0x80, 0x85, 0x49,
  0x90, 0x96, 0x9a, 0x80, 0x8c, 0x88, 0xaa, 0x84, 0xa5, 0x94, 0x9a, 0x7e,
  0x7c, 0x7b, 0x94, 0x82, 0x8d, 0x89, 0xa2, 0x86, 0x86, 0x84, 0x8d, 0x7a,
  0x81, 0x94, 0x93, 0x83, 0x7b, 0x7e, 0x93, 0x8e, 0x8c, 0x88, 0x60, 0x77,
  0x86, 0x85, 0x94, 0x6a, 0x55, 0x6b, 0xc4, 0x68, 0x2b, 0x5a, 0xca, 0x83,
  0x63, 0x65, 0xc0, 0x83, 0x59, 0x6c, 0xc1, 0x8e, 0x5c, 0x91, 0xb9, 0x7c,
  0xad, 0x85, 0x77, 0x58, 0xba, 0x81, 0x6b, 0x62, 0xbb, 0x6d, 0x8a, 0x51,
  0xa7, 0x5c, 0x89, 0x42, 0xa3, 0x79, 0x84, 0x51, 0x8b, 0x8c, 0x9f, 0x67,
  0x8c, 0x8a, 0xab, 0x87, 0xa2, 0x8c, 0xa7, 0x77, 0x86, 0x86, 0x95, 0x79,
  0x8b, 0x7c, 0x9e, 0x83, 0x84, 0x7c, 0x97, 0x81, 0x8c, 0x8e, 0x9d, 0x76,
  0x86, 0x7b, 0xa4, 0x81, 0x8c, 0x80, 0x65, 0x71, 0x9b, 0x80, 0xa2, 0x77,
  0x5a, 0x51, 0xc8, 0x67, 0x37, 0x44, 0xd6, 0x80, 0x4f, 0x5a, 0xcd, 0x93,
  0x68, 0x81, 0xcd, 0x8c, 0x6d, 0x82, 0xac, 0x77, 0x9a, 0x83, 0x82, 0x6f,
  0xc8, 0x83, 0x80, 0x4c, 0xb4, 0x69, 0x7e, 0x51, 0xac, 0x5e, 0xa2, 0x59,
  0x9a, 0x73, 0x95, 0x67, 0x93, 0x9a, 0xb1, 0x77, 0x92, 0x85, 0xaa, 0x73,
  0x9d, 0x93, 0xb5, 0x76, 0x94, 0x7b, 0xae, 0x7f, 0x8c, 0x88, 0xae, 0x87,
  0x85, 0x7b, 0xa4, 0x6f, 0x87, 0x8c, 0x9e, 0x81, 0x6d, 0x76, 0xa8, 0x81,
  0x8b, 0x79, 0x7a, 0x7f, 0x99, 0x76, 0x94, 0x6c, 0x64, 0x52, 0xca, 0x6e,
  0x34, 0x5c, 0xd9, 0x68, 0x5e, 0x5b, 0xd4, 0x7f, 0x65, 0x76, 0xc5, 0x95,
  0x64, 0x79, 0xc5, 0x82, 0x9f, 0x80, 0x90, 0x65, 0xb7, 0x7b, 0x7e, 0x5b,
  0xba, 0x6a, 0x8c, 0x45, 0x9e, 0x4f, 0x9c, 0x5b, 0xbd, 0x77, 0x9e, 0x67,
  0x86, 0xa3, 0xc3, 0x6e, 0x8d, 0x91, 0xb7, 0x84, 0x99, 0x92, 0xbd, 0x76,
  0x89, 0x7d, 0xa8, 0x84, 0x86, 0x77, 0xa4, 0x7a, 0x84, 0x7d, 0xa5, 0x7f,
  0x7f, 0x7c, 0xaa, 0x84, 0x71, 0x81, 0xae, 0x85, 0x95, 0x7c, 0x77, 0x82,
  0x9b, 0x6c, 0x9d, 0x67, 0x4f, 0x5a, 0xc7, 0x73, 0x4f, 0x59, 0xca, 0x8c,
  0x74, 0x61, 0xcb, 0x77, 0x79, 0x80, 0xd9, 0x68, 0x60, 0x9e, 0xc2, 0x6c,
  0x99, 0x78, 0x97, 0x85, 0xbd, 0x7a, 0x7e, 0x6b, 0xc7, 0x76, 0x94, 0x54,
  0xaa, 0x4e, 0x9e, 0x6d, 0xb2, 0x7c, 0x94, 0x5a, 0x90, 0x97, 0xb9, 0x73,
  0x9b, 0x86, 0xa5, 0x86, 0xa4, 0x8a, 0xb4, 0x7d, 0x82, 0x85, 0xa9, 0x7c,
  0x87, 0x75, 0x97, 0x6f, 0x93, 0x83, 0xb0, 0x75, 0x8e, 0x7d, 0xa5, 0x80,
  0x77, 0x7e, 0xa9, 0x8a, 0xa8, 0x7e, 0x81, 0x77, 0x92, 0x57, 0x8f, 0x79,
  0x61, 0x5d, 0xb1, 0x6d, 0x5a, 0x4a, 0xb8, 0x7a, 0x7f, 0x72, 0xce, 0x76,
  0x7c, 0x86, 0xcb, 0x6f, 0x74, 0x93, 0xba, 0x80, 0xa5, 0x7a, 0x90, 0x75,
  0xc9, 0x74, 0x83, 0x62, 0xc3, 0x68, 0x80, 0x5c, 0xa5, 0x4f, 0x97, 0x5f,
  0xb1, 0x7f, 0x98, 0x59, 0x87, 0x92, 0xbd, 0x83, 0xa9, 0x93, 0xa9, 0x74,
  0xa2, 0x97, 0xa9, 0x85, 0x9a, 0x81, 0x9f, 0x75, 0x8d, 0x83, 0x9a, 0x78,
  0x93, 0x87, 0xa1, 0x66, 0x7f, 0x83, 0x98, 0x7f, 0x7a, 0x7d, 0xab, 0x7a,
  0x97, 0x7f, 0x83, 0x71, 0xa5, 0x78, 0x90, 0x87, 0x6c, 0x52, 0xa8, 0x69,
  0x70, 0x67, 0x9a, 0x7d, 0x96, 0x60, 0xac, 0x73, 0x81, 0x83, 0xb9, 0x96,
  0x96, 0x81, 0xbf, 0x8f, 0xa0, 0x87, 0x83, 0x5a, 0xd1, 0x79, 0x76, 0x6b,
  0xc7, 0x6d, 0x80, 0x66, 0xa1, 0x51, 0x8f, 0x52, 0xbb, 0x7d, 0x76, 0x76,
  0xa0, 0x9c, 0xb8, 0x82, 0x9b, 0x96, 0xa9, 0x8a, 0x9f, 0x98, 0xa7, 0x8b,
  0x8f, 0x75, 0xa8, 0x83, 0x84, 0x80, 0x92, 0x77, 0x89, 0x81, 0x96, 0x76,
  0x97, 0x81, 0x92, 0x88, 0x7a, 0x84, 0x9d, 0x7f, 0xdb, 0x5b, 0x6f, 0x65,
  0xbc, 0x7c, 0x7b, 0x8e, 0xb5, 0x72, 0x73, 0x81, 0xb8, 0x56, 0x6f, 0x86,
  0xc6, 0x68, 0x8d, 0x6d, 0xb5, 0x81, 0x82, 0x7b, 0xa7, 0x90, 0x8e, 0x92,
  0xaf, 0x8c, 0x6f, 0x67, 0xce, 0x7e, 0x75, 0x6c, 0xcc, 0x78, 0x6e, 0x69,
  0xb5, 0x75, 0x63, 0x6c, 0xd3, 0x93, 0x69, 0x6d, 0xbe, 0x94, 0x8d, 0x67,
  0xbe, 0x9d, 0x8a, 0x78, 0xca, 0xa9, 0x8f, 0x71, 0x9a, 0x7e, 0x98, 0x6f,
  0xad, 0x7d, 0x8d, 0x8c, 0xa4, 0x8c, 0x8a, 0x68, 0xa4, 0x8f, 0x85, 0x69,
  0x77, 0x78, 0x96, 0x74, 0x90, 0x87, 0x9a, 0x92, 0x74, 0x66, 0xa5, 0x8f,
  0x82, 0x5e, 0xa3, 0x86, 0x8c, 0x6a, 0xa7, 0x8d, 0x8b, 0x7c, 0xab, 0x7f,
  0x61, 0x73, 0xa1, 0x96, 0x73, 0x65, 0xad, 0x90, 0x92, 0x72, 0x9d, 0x8d,
  0x85, 0x65, 0x9e, 0x90, 0x79, 0x60, 0xa4, 0x91, 0x71, 0x6a, 0xa4, 0x80,
  0x72, 0x6d, 0xab, 0x8c, 0x7e, 0x60, 0xa6, 0x8c, 0x62, 0x58, 0x9f, 0x7c,
  0x7f, 0x66, 0xa2, 0x96, 0x86, 0x71, 0xa6, 0x80, 0x76, 0x67, 0xa0, 0x85,
  0x7e, 0x75, 0xa1, 0x80, 0x64, 0x70, 0x9a, 0x84, 0x87, 0x66, 0xa9, 0x85,
  0x89, 0x84, 0x9c, 0x8b, 0x95, 0x93, 0xa4, 0x98, 0x78, 0x8e, 0xad, 0x89,
  0x93, 0x84, 0xa9, 0x8f, 0x6c, 0x67, 0xaa, 0x84, 0x81, 0x72, 0xa7, 0x7c,
  0x87, 0x70, 0xaf, 0x9a, 0x90, 0x84, 0x9c, 0x84, 0x8b, 0x7c, 0xb0, 0x8e,
  0x7b, 0x6c, 0xa9, 0x87, 0x7e, 0x91, 0xa9, 0x96, 0x85, 0x98, 0xac, 0x96,
  0x7d, 0x72, 0xa7, 0x82, 0x89, 0x69, 0xa7, 0x89, 0x80, 0x6c, 0xa0, 0x84,
  0x75, 0x8f, 0x9f, 0x84, 0x82, 0x9b, 0xa1, 0x76, 0x8b, 0x93, 0x9f, 0x88,
  0x72, 0x92, 0x9d, 0x78, 0x9a, 0x82, 0xad, 0x82, 0x87, 0x8d, 0x9b, 0x68,
  0x7b, 0x68, 0xa3, 0x70, 0x85, 0x84, 0x9f, 0x5f, 0x8a, 0x6e, 0xa0, 0x6c,
  0x77, 0x60, 0xa4, 0x7b, 0x93, 0x66, 0x9e, 0x86, 0x96, 0x74, 0x9f, 0x74,
  0x89, 0x91, 0xa4, 0x7c, 0x87, 0x83, 0xb8, 0x85, 0x70, 0x7e, 0xb0, 0x75,
  0x71, 0x89, 0xb0, 0x7d, 0x78, 0x85, 0xad, 0x75, 0x8e, 0x7e, 0xa1, 0x83,
  0x7b, 0x6f, 0xa6, 0x6b, 0x8f, 0x6b, 0xa3, 0x73, 0x81, 0x81, 0x9b, 0x78,
  0x89, 0x76, 0x99, 0x79, 0x81, 0x82, 0xa1, 0x7d, 0x7b, 0x7b, 0xa1, 0x75,
  0x73, 0x8f, 0xac, 0x66, 0x7c, 0x8c, 0x8a, 0x7e, 0x9d, 0x6b, 0x90, 0x60,
  0x8b, 0x6e, 0x92, 0x6a, 0x94, 0x74, 0x93, 0x7b, 0x6e, 0x68, 0x93, 0x91,
  0x8b, 0x62, 0x8c, 0x82, 0x9e, 0x7d, 0x8f, 0x70, 0x8c, 0x64, 0xa2, 0x87,
  0x7b, 0x6e, 0xa1, 0x76, 0x70, 0x64, 0x9e, 0x79, 0x6a, 0x71, 0x96, 0x83,
  0x75, 0x6e, 0x9b, 0x71, 0x7e, 0x83, 0x97, 0x72, 0x88, 0x8b, 0x9b, 0x74,
  0x90, 0x80, 0x9e, 0x85, 0x8a, 0x78, 0x8a, 0x82, 0x84, 0x63, 0x9a, 0x7d,
  0x80, 0x87, 0x91, 0x6e, 0x8e, 0x70, 0xa1, 0x7c, 0x6d, 0x7f, 0xa5, 0x7b,
  0x97, 0x97, 0x8c, 0x79, 0x96, 0x7d, 0x8b, 0x73, 0x9f, 0x76, 0x85, 0x8f,
  0x87, 0x70, 0x97, 0x81, 0x71, 0x79, 0x88, 0x7f, 0x99, 0x7c, 0x83, 0x84,
  0xa0, 0x71, 0x81, 0x76, 0x94, 0x7b, 0x93, 0x8c, 0x81, 0x79, 0x96, 0x79,
  0x70, 0x72, 0x86, 0x79, 0x6d, 0x75, 0x9c, 0x83, 0x7e, 0x73, 0x9e, 0x72,
  0x74, 0x68, 0x8e, 0x7c, 0x90, 0x6d, 0x7c, 0x72, 0x83, 0x70, 0x7f, 0x6d,
  0x82, 0x7f, 0x7e, 0x6e, 0x8b, 0x76, 0x7c, 0x75, 0x8b, 0x79, 0x8a, 0x78,
  0x8d, 0x7b, 0x91, 0x76, 0x7a, 0x75, 0xa5, 0x6f, 0x9f, 0x8a, 0x8c, 0x8f,
  0x9d, 0x86, 0x78, 0x7e, 0xa0, 0x77, 0x80, 0x7b, 0x86, 0x70, 0x95, 0x98,
  0x78, 0x76, 0x92, 0x9b, 0xa1, 0x7a, 0x7b, 0x82, 0x99, 0x78, 0x71, 0x8b,
  0x83, 0x78, 0x8b, 0x86, 0x7c, 0x79, 0x9d, 0x82, 0x6d, 0x74, 0x82, 0x82,
  0x76, 0x7e, 0x7d, 0x7c, 0x82, 0x79, 0x86, 0x8f, 0x79, 0x74, 0x84, 0x7e,
  0x8c, 0x7f, 0x77, 0x77, 0x8c, 0x82, 0x76, 0x76, 0x7e, 0x79, 0x7b, 0x7b,
  0x8b, 0x76, 0x77, 0x6a, 0x8e, 0x7e, 0x85, 0x6c, 0x89, 0x8a, 0x87, 0x85,
  0x88, 0x8a, 0x9d, 0x6f, 0xac, 0x8a, 0x7d, 0x8d, 0xa6, 0x9b, 0x6f, 0x7f,
  0xb4, 0x7b, 0x78, 0x7e, 0x99, 0x7f, 0x8a, 0x89, 0x7c, 0x78, 0x8d, 0x92,
  0x92, 0x8c, 0x6d, 0x87, 0x93, 0x7c, 0x71, 0x88, 0x85, 0x77, 0x90, 0x8e,
  0x95, 0x84, 0x94, 0x88, 0x6b, 0x81, 0x81, 0x73, 0x78, 0x80, 0x7c, 0x84,
  0x7e, 0x7a, 0x90, 0x83, 0x82, 0x7e, 0x84, 0x77, 0x94, 0x80, 0x6f, 0x84,
  0x96, 0x91, 0x7f, 0x7b, 0x96, 0x85, 0x7c, 0x69, 0x92, 0x82, 0x7f, 0x61,
  0x9a, 0x87, 0x83, 0x7b, 0x95, 0x89, 0x92, 0x67, 0x90, 0x76, 0x96, 0x7b,
  0xa0, 0x86, 0x74, 0x94, 0xaf, 0x89, 0x70, 0x93, 0xb4, 0x8f, 0x6c, 0x89,
  0xa5, 0x83, 0x8c, 0x97, 0x90, 0x8e, 0x94, 0x97, 0x99, 0x7e, 0x70, 0x87,
  0x9b, 0x8c, 0x84, 0x78, 0x8b, 0x7b, 0x89, 0x86, 0x9b, 0x8a, 0x89, 0x8d,
  0x7d, 0x8d, 0x89, 0x88, 0x81, 0x8e, 0x78, 0x8f, 0x83, 0x7c, 0x88, 0x86,
  0x85, 0x79, 0x86, 0x88, 0x8a, 0x82, 0x78, 0x6a, 0x87, 0x8d, 0x75, 0x7f,
  0x91, 0x88, 0x7b, 0x6d, 0x90, 0x7f, 0x79, 0x68, 0x98, 0x88, 0x88, 0x73,
  0x8f, 0x7f, 0x89, 0x65, 0x8d, 0x7a, 0x93, 0x6f, 0xa6, 0x87, 0x76, 0x88,
  0xa2, 0x95, 0x6c, 0x84, 0xb4, 0x89, 0x6a, 0x7d, 0xa5, 0x7e, 0x92, 0x9c,
  0x7c, 0x7d, 0x97, 0x89, 0x8e, 0x90, 0x7c, 0x87, 0x99, 0x88, 0x66, 0x82,
  0x87, 0x7a, 0x92, 0x91, 0x93, 0x91, 0x8a, 0x8d, 0x85, 0x89, 0x8d, 0x84,
  0x7f, 0x75, 0x75, 0x8f, 0x85, 0x91, 0x7c, 0x81, 0x89, 0x8c, 0x7e, 0x6c,
  0x9b, 0x86, 0x70, 0x7b, 0x9a, 0x7c, 0x73, 0x74, 0x8d, 0x87, 0x75, 0x6a,
  0x88, 0x84, 0x84, 0x76, 0x90, 0x93, 0x93, 0x65, 0x98, 0x82, 0x8a, 0x71,
  0x93, 0x80, 0x8c, 0x73, 0xa6, 0x87, 0x6b, 0x86, 0x9b, 0xa0, 0x73, 0x8c,
  0xb3, 0x86, 0x71, 0x90, 0x93, 0x86, 0x83, 0x97, 0x8a, 0x81, 0x9a, 0x9d,
  0x9d, 0x83, 0x71, 0x87, 0x95, 0x86, 0x66, 0x77, 0x9e, 0x7c, 0x98, 0x8c,
  0x93, 0x90, 0x92, 0x94, 0x88, 0x99, 0x98, 0x90, 0x7b, 0x8f, 0x73, 0x96,
  0x8e, 0x88, 0x87, 0x7a, 0x84, 0x82, 0x83, 0x77, 0x90, 0x7e, 0x7c, 0x81,
  0x81, 0x84, 0x77, 0x65, 0x8e, 0x89, 0x75, 0x7a, 0x7c, 0x8b, 0x86, 0x6c,
  0x8d, 0x8f, 0x88, 0x59, 0x8f, 0x8c, 0x82, 0x6d, 0x9a, 0x8a, 0x8f, 0x6e,
  0x9b, 0x88, 0x5b, 0x84, 0xae, 0x86, 0x70, 0x90, 0xbd, 0x82, 0x6b, 0x8e,
  0xb5, 0x7f, 0x87, 0x92, 0x87, 0x81, 0x90, 0x9f, 0x96, 0x90, 0x63, 0x87,
  0x95, 0x8c, 0x6d, 0x93, 0x8d, 0x7b, 0x91, 0x98, 0x84, 0x86, 0x90, 0x88,
  0x7d, 0x82, 0x88, 0x98, 0x7c, 0x85, 0x78, 0x8f, 0x7e, 0x85, 0x83, 0x8a,
  0x7c, 0x84, 0x79, 0x7c, 0x8e, 0x84, 0x82, 0x76, 0x77, 0x7d, 0x76, 0x68,
  0x83, 0x7d, 0x75, 0x5c, 0x8f, 0x90, 0x83, 0x60, 0x8f, 0x81, 0x7f, 0x73,
  0x94, 0x86, 0x88, 0x6d, 0x94, 0x8e, 0x83, 0x72, 0xa1, 0x75, 0x64, 0x89,
  0x9d, 0x87, 0x69, 0x84, 0xb0, 0x83, 0x6f, 0x8e, 0xb6, 0x8d, 0x7b, 0x8b,
  0x8d, 0x7d, 0x97, 0x90, 0x8d, 0x8b, 0x6d, 0x83, 0x9d, 0x7e, 0x6f, 0x88,
  0x97, 0x7a, 0x90, 0x8e, 0x97, 0x93, 0x9c, 0x98, 0x88, 0x91, 0x89, 0x90,
  0x8f, 0x88, 0x83, 0x80, 0x95, 0x8d, 0x88, 0x85, 0x89, 0x88, 0x7e, 0x71,
  0x95, 0x7b, 0x89, 0x6a, 0x7c, 0x7a, 0x7e, 0x5d, 0x83, 0x86, 0x79, 0x65,
  0x89, 0x92, 0x85, 0x67, 0x7c, 0x86, 0x84, 0x6f, 0x7d, 0x89, 0x8e, 0x68,
  0x89, 0x8a, 0x81, 0x69, 0xa7, 0x78, 0x64, 0x91, 0xa5, 0x77, 0x65, 0x9a,
  0xb7, 0x85, 0x67, 0x80, 0xad, 0x7c, 0x7a, 0x98, 0x83, 0x79, 0x96, 0xa1,
  0x7a, 0x8b, 0x6d, 0x88, 0x9c, 0x7f, 0x64, 0x7b, 0x94, 0x77, 0x99, 0x95,
  0x9e, 0x90, 0xa2, 0x9b, 0x83, 0x8d, 0x87, 0x9f, 0x87, 0x96, 0x89, 0x8a,
  0x90, 0x82, 0x85, 0x86, 0x7a, 0x82, 0x8a, 0x81, 0x8c, 0x83, 0x8d, 0x74,
  0x7d, 0x78, 0x7a, 0x65, 0x8c, 0x8a, 0x73, 0x65, 0x8f, 0x85, 0x74, 0x61,
  0x77, 0x7d, 0x84, 0x68, 0x8d, 0x8e, 0x87, 0x69, 0x84, 0x84, 0x84, 0x72,
  0xba, 0x70, 0x6f, 0x92, 0xa0, 0x8a, 0x64, 0x88, 0xbd, 0x7f, 0x68, 0x97,
  0xa0, 0x85, 0x71, 0x8c, 0x6c, 0x79, 0x96, 0x91, 0x8d, 0x75, 0x6e, 0x8c,
  0x94, 0x78, 0x5f, 0x80, 0x86, 0x7a, 0x8e, 0x94, 0xa5, 0x96, 0x97, 0x93,
  0x87, 0x9a, 0x7f, 0x9e, 0x89, 0x9e, 0x7f, 0x8e, 0x8e, 0x82, 0x7c, 0x80,
  0x77, 0x7b, 0x89, 0x7b, 0x8a, 0x78, 0x7f, 0x6c, 0x7e, 0x87, 0x78, 0x68,
  0x7a, 0x7e, 0x7b, 0x68, 0x7f, 0x88, 0x84, 0x5d, 0x86, 0x85, 0x87, 0x6d,
  0x94, 0x82, 0x85, 0x5c, 0x82, 0x96, 0x88, 0x6e, 0x9e, 0x74, 0x6e, 0x91,
  0x9f, 0x7e, 0x6d, 0x8d, 0xb3, 0x85, 0x6d, 0x9a, 0x98, 0x66, 0x7a, 0x97,
  0x86, 0x73, 0x87, 0x93, 0x82, 0x75, 0x6f, 0x87, 0x91, 0x71, 0x62, 0x7c,
  0x91, 0x69, 0x8e, 0x90, 0x96, 0x9e, 0x9f, 0x95, 0x71, 0x96, 0x7d, 0x9e,
  0x81, 0x94, 0x88, 0x93, 0x7e, 0x7e, 0x83, 0x8b, 0x72, 0x7b, 0x84, 0x7e,
  0x83, 0x7d, 0x7e, 0x70, 0x7c, 0x7f, 0x7b, 0x66, 0x82, 0x82, 0x7c, 0x6a,
  0x7c, 0x8e, 0x7c, 0x5c, 0x8a, 0x8e, 0x83, 0x6c, 0x82, 0x7a, 0x8f, 0x5a,
  0x96, 0x84, 0x81, 0x77, 0xa2, 0x6e, 0x74, 0x92, 0xa1, 0x87, 0x78, 0x9e,
  0xb7, 0x80, 0x74, 0x93, 0x96, 0x72, 0x7a, 0x9f, 0x75, 0x6d, 0x9c, 0xa1,
  0x7c, 0x6e, 0x77, 0x77, 0x8d, 0x60, 0x6a, 0x85, 0x9b, 0x69, 0x90, 0x84,
  0x9b, 0x91, 0xa5, 0x9a, 0x80, 0x9a, 0x7f, 0xa2, 0x82, 0x9e, 0x8d, 0x97,
  0x80, 0x80, 0x80, 0x82, 0x8b, 0x79, 0x87, 0x75, 0x7d, 0x80, 0x7a, 0x6f,
  0x8a, 0x82, 0x76, 0x6a, 0x8c, 0x85, 0x89, 0x63, 0x83, 0x8a, 0x7b, 0x66,
  0x8a, 0x82, 0x8a, 0x5f, 0x84, 0x85, 0x90, 0x6d, 0x86, 0x9b, 0x87, 0x73,
  0xa2, 0x5c, 0x7e, 0xaa, 0x98, 0x8f, 0x7c, 0x93, 0xb1, 0x73, 0x7a, 0xab,
  0x95, 0x6d, 0x8c, 0x8d, 0x7c, 0x5f, 0x92, 0x8d, 0x82, 0x64, 0x79, 0x7d,
  0x8b, 0x67, 0x6c, 0x7e, 0x91, 0x54, 0x91, 0x97, 0x8a, 0x85, 0x9d, 0x94,
  0x88, 0x98, 0x8e, 0x9f, 0x80, 0xa6, 0x8a, 0x9c, 0x92, 0x86, 0x88, 0x91,
  0x80, 0x85, 0x85, 0x78, 0x85, 0x7d, 0x82, 0x6b, 0x7c, 0x75, 0x80, 0x6a,
  0x88, 0x76, 0x7f, 0x63, 0x8b, 0x89, 0x7c, 0x68, 0x95, 0x80, 0x81, 0x65,
  0x87, 0x7e, 0x87, 0x64, 0x8c, 0x9d, 0x89, 0x69, 0x99, 0x7b, 0x8f, 0xb1,
  0x9d, 0x80, 0x87, 0x96, 0xb0, 0x7c, 0x8b, 0x9a, 0x91, 0x5f, 0x96, 0x88,
  0x7a, 0x53, 0xa2, 0x98, 0x7b, 0x65, 0x79, 0x78, 0x8a, 0x4f, 0x76, 0x73,
  0x7e, 0x53, 0x9e, 0x7e, 0x8e, 0x9b, 0xa2, 0x9b, 0x74, 0x99, 0x92, 0xa3,
  0x7b, 0x97, 0x98, 0xa0, 0x92, 0x83, 0x8e, 0x78, 0x87, 0x71, 0x8c, 0x78,
  0x75, 0x6c, 0x8e, 0x8a, 0x7e, 0x76, 0x76, 0x62, 0x75, 0x7c, 0x8d, 0x77,
  0x92, 0x8d, 0x86, 0x79, 0x89, 0x88, 0x83, 0x61, 0x89, 0x8f, 0x89, 0x71,
  0x8f, 0x90, 0x87, 0x74, 0xa3, 0x75, 0x8a, 0x9a, 0x94, 0x85, 0x8f, 0xa0,
  0xbd, 0x76, 0x9b, 0x96, 0x95, 0x69, 0x99, 0x86, 0x7f, 0x4a, 0xaa, 0x90,
  0x7a, 0x45, 0x82, 0x7f, 0x83, 0x55, 0x81, 0x80, 0x95, 0x5e, 0x9d, 0x81,
  0x96, 0x9b, 0xa5, 0xa7, 0x8b, 0x99, 0xac, 0xa2, 0x88, 0x99, 0x99, 0x94,
  0x7e, 0x87, 0x91, 0x81, 0x7c, 0x69, 0x8a, 0x7b, 0x6d, 0x6c, 0x9d, 0x74,
  0x7e, 0x6b, 0x87, 0x6a, 0x7b, 0x82, 0x87, 0x64, 0x84, 0x86, 0x8e, 0x6c,
  0x7f, 0x7e, 0x82, 0x70, 0x97, 0x90, 0xa0, 0x70, 0x9f, 0x8b, 0x8f, 0x6e,
  0x9c, 0x76, 0xa0, 0x9e, 0xa9, 0x83, 0x9e, 0x99, 0xac, 0x78, 0x9a, 0x9b,
  0x93, 0x66, 0xac, 0x90, 0x6d, 0x3f, 0xab, 0x94, 0x87, 0x51, 0x94, 0x72,
  0x93, 0x30, 0x81, 0x5e, 0x87, 0x4a, 0x9c, 0x7c, 0x9a, 0x9d, 0xb2, 0xa2,
  0x81, 0xa0, 0xab, 0xa0, 0x87, 0x9f, 0xb3, 0x97, 0x7a, 0x7e, 0xa8, 0x97,
  0x80, 0x71, 0x9a, 0x78, 0x7e, 0x63, 0xa2, 0x64, 0x81, 0x77, 0x8e, 0x60,
  0x85, 0x79, 0x9b, 0x65, 0x90, 0x8f, 0x91, 0x74, 0x8d, 0x82, 0x94, 0x6e,
  0x90, 0x8d, 0x94, 0x6a, 0x87, 0x91, 0x92, 0x76, 0x9c, 0x72, 0xa3, 0x9e,
  0xa6, 0x7a, 0x9c, 0x9e, 0xc1, 0x73, 0x9f, 0x9a, 0x9a, 0x62, 0xaf, 0x8a,
  0x7a, 0x38, 0xb1, 0x83, 0x85, 0x40, 0x8c, 0x78, 0x89, 0x13, 0x97, 0x66,
  0x90, 0x49, 0xa7, 0x76, 0x8d, 0x96, 0xb2, 0x8d, 0x7e, 0xa5, 0xb4, 0x98,
  0x83, 0x97, 0xb6, 0x9c, 0x8b, 0x86, 0xaf, 0x98, 0x74, 0x7f, 0xa6, 0x6f,
  0x81, 0x6b, 0xac, 0x76, 0x74, 0x74, 0x9a, 0x63, 0x7d, 0x7e, 0x8b, 0x64,
  0x7f, 0x80, 0x9a, 0x75, 0x7d, 0x87, 0x97, 0x78, 0x81, 0x7c, 0x99, 0x6e,
  0x7f, 0x93, 0x96, 0x6e, 0x9f, 0x78, 0x99, 0x92, 0xa5, 0x76, 0xa1, 0x98,
  0xab, 0x80, 0xa1, 0x9a, 0xa0, 0x4f, 0xac, 0x86, 0x8c, 0x30, 0xba, 0x83,
  0x93, 0x33, 0x98, 0x71, 0x88, 0x2c, 0x7f, 0x6f, 0x90, 0x30, 0xa0, 0x80,
  0x97, 0x8a, 0xa8, 0x91, 0x90, 0xa8, 0xc3, 0xaa, 0x82, 0x9a, 0xb9, 0x90,
  0x83, 0x85, 0xb5, 0x88, 0x7d, 0x6a, 0xa6, 0x76, 0x7a, 0x5d, 0x98, 0x7c,
  0x84, 0x61, 0xa0, 0x73, 0x79, 0x7a, 0x9e, 0x6c, 0x79, 0x7e, 0x92, 0x68,
  0x87, 0x8c, 0x9c, 0x74, 0x8e, 0x84, 0x98, 0x7b, 0x88, 0x87, 0x8e, 0x7c,
  0xab, 0x78, 0xa9, 0xa1, 0x9f, 0x76, 0x9c, 0x9d, 0xb1, 0x7d, 0x9c, 0x90,
  0xa6, 0x44, 0xae, 0x88, 0x81, 0x3b, 0xbc, 0x68, 0x8e, 0x3e, 0x90, 0x71,
  0x9d, 0x25, 0x90, 0x65, 0xa1, 0x36, 0x88, 0x6b, 0xa1, 0x8d, 0xb0, 0x8b,
  0x97, 0xa2, 0xbc, 0xaa, 0x84, 0x9f, 0xbe, 0x81, 0x81, 0x80, 0xca, 0x82,
  0x80, 0x6d, 0xb1, 0x7e, 0x80, 0x5e, 0xa5, 0x6d, 0x73, 0x69, 0x90, 0x75,
  0x94, 0x75, 0x9a, 0x67, 0x79, 0x87, 0xa4, 0x77, 0x82, 0x85, 0x99, 0x71,
  0x81, 0x8b, 0x9b, 0x74, 0x85, 0x85, 0x8d, 0x7f, 0x99, 0x72, 0x9e, 0x8f,
  0xab, 0x74, 0xa1, 0x9c, 0xb7, 0x7b, 0xac, 0x9a, 0x99, 0x59, 0xa9, 0x71,
  0x94, 0x30, 0x9f, 0x72, 0x94, 0x21, 0x7a, 0x61, 0x82, 0x19, 0x72, 0x3c,
  0xa9, 0x35, 0x6b, 0x5c, 0xad, 0x98, 0x94, 0x85, 0x9f, 0xa3, 0xb9, 0x8b,
  0x8b, 0x97, 0xcc, 0x95, 0x90, 0x88, 0xb0, 0x94, 0x8e, 0x67, 0x9a, 0x6d,
  0x85, 0x61, 0xa7, 0x74, 0x72, 0x61, 0x96, 0x60, 0x82, 0x6e, 0x94, 0x6b,
  0x76, 0x84, 0x8f, 0x6f, 0x78, 0x86, 0x84, 0x74, 0x8b, 0x85, 0x85, 0x74,
  0x87, 0x88, 0x85, 0x7c, 0xd0, 0x6f, 0x95, 0x85, 0xbe, 0x84, 0x79, 0x9d,
  0xce, 0x85, 0x8d, 0x71, 0xbe, 0x68, 0x90, 0x85, 0xac, 0x5d, 0x7e, 0x84,
  0xac, 0x40, 0x59, 0x88, 0x8a, 0x4d, 0x59, 0x87, 0xb2, 0x43, 0x48, 0x72,
  0xc3, 0x6d, 0x5e, 0x7e, 0xb4, 0x88, 0xa0, 0x6d, 0xa8, 0x9e, 0x9b, 0x91,
  0xa2, 0x84, 0xa6, 0x91, 0x9f, 0x80, 0x7b, 0x79, 0x90, 0x89, 0x7d, 0x6a,
  0xa0, 0x5e, 0x67, 0x69, 0x90, 0x7a, 0x75, 0x6b, 0x85, 0x76, 0x8b, 0x7a,
  0x91, 0x7f, 0x81, 0x72, 0xac, 0x95, 0x76, 0x8c, 0x7b, 0x84, 0x7d, 0x8a,
  0x80, 0x89, 0x99, 0x88, 0x6b, 0x8e, 0x9a, 0x8a, 0x70, 0x7c, 0x99, 0x85,
  0x7b, 0x82, 0xa3, 0x87, 0x71, 0x7c, 0xa4, 0x71, 0x6e, 0x89, 0x91, 0x8a,
  0x80, 0x75, 0xa6, 0x8c, 0x65, 0x82, 0xa2, 0x7e, 0x7b, 0x80, 0x92, 0x89,
  0x5f, 0x71, 0x9e, 0x85, 0x82, 0x6c, 0xa1, 0x6e, 0x6b, 0x7f, 0xa0, 0x8c,
  0x5c, 0x66, 0x9b, 0x90, 0x6b, 0x71, 0xa0, 0x7f, 0x73, 0x71, 0x9b, 0x8d,
  0x7b, 0x76, 0xa2, 0x86, 0x7d, 0x7f, 0x94, 0x83, 0x85, 0x85, 0x98, 0x88,
  0x7c, 0x8e, 0x9f, 0x86, 0x82, 0x84, 0xab, 0x91, 0x92, 0x8a, 0x9c, 0x8a,
  0x93, 0x8a, 0x9b, 0x86, 0x75, 0x78, 0xa2, 0x7c, 0x89, 0x6f, 0xa5, 0x7f,
  0x7f, 0x72, 0x9d, 0x75, 0x7e, 0x87, 0x9c, 0x85, 0x85, 0x80, 0xab, 0x8d,
  0x81, 0x7d, 0x97, 0x73, 0x8e, 0x8a, 0x9b, 0x82, 0x73, 0x92, 0xa4, 0x71,
  0x7d, 0x74, 0x9d, 0x82, 0x73, 0x78, 0xa0, 0x8e, 0x72, 0x6f, 0x9b, 0x7b,
  0x73, 0x6f, 0xa2, 0x75, 0x72, 0x6c, 0x9c, 0x74, 0x6a, 0x94, 0xa1, 0x7e,
  0x79, 0x6e, 0x9a, 0x7b, 0x87, 0x90, 0x96, 0x7c, 0x80, 0x68, 0x99, 0x84,
  0x91, 0x69, 0xab, 0x7d, 0x8b, 0x8f, 0xa5, 0x7b, 0x6f, 0x7a, 0xa2, 0x87,
  0x75, 0x81, 0xa0, 0x7d, 0x86, 0x96, 0x9a, 0x75, 0x74, 0x91, 0x95, 0x7a,
  0x7d, 0x7f, 0x94, 0x7b, 0x7a, 0x92, 0x98, 0x7b, 0x75, 0x80, 0xa8, 0x8b,
  0x6b, 0x83, 0xa3, 0x72, 0x75, 0x87, 0xaa, 0x7e, 0x67, 0x6b, 0xa7, 0x86,
  0x7f, 0x7b, 0xa2, 0x86, 0x81, 0x83, 0x9d, 0x6b, 0x6a, 0x78, 0x9d, 0x6e,
  0x7b, 0x7a, 0xa0, 0x75, 0x7a, 0x8e, 0xa0, 0x8d, 0x78, 0x81, 0x88, 0x7e,
  0x7b, 0x78, 0x9d, 0x72, 0x8b, 0x86, 0x98, 0x7a, 0x74, 0x72, 0xab, 0x78,
  0x7a, 0x87, 0x98, 0x90, 0x80, 0x81, 0x9d, 0x8f, 0x6e, 0x75, 0xb1, 0x6f,
  0x7a, 0x8a, 0x92, 0x70, 0x64, 0x7e, 0x92, 0x8d, 0x71, 0x79, 0x97, 0x70,
  0x6f, 0x70, 0x9f, 0x88, 0x7e, 0x76, 0xa6, 0x7b, 0x59, 0x73, 0xb4, 0x84,
  0x63, 0x7b, 0xa3, 0x73, 0x79, 0x78, 0x9f, 0x78, 0x7a, 0x83, 0x97, 0x72,
  0x95, 0x90, 0x93, 0x6b, 0x81, 0x82, 0xa1, 0x77, 0x77, 0x70, 0x9f, 0x85,
  0x79, 0x7f, 0x9a, 0x86, 0x76, 0x6f, 0x8e, 0x6e, 0x7a, 0x74, 0x97, 0x87,
  0x85, 0x7a, 0x97, 0x97, 0x75, 0x8b, 0xa6, 0x7c, 0x89, 0x93, 0x9c, 0x87,
  0x68, 0x6c, 0xaf, 0x87, 0x5c, 0x75, 0xb4, 0x82, 0x82, 0x8a, 0x9b, 0x76,
  0x68, 0x83, 0x8e, 0x7f, 0x6c, 0x83, 0x99, 0x6e, 0x69, 0x6e, 0xa2, 0x6b,
  0x6a, 0x5d, 0xb4, 0x7d, 0x57, 0x84, 0xb7, 0x72, 0x65, 0x78, 0xab, 0x84,
  0x7d, 0x78, 0xa9, 0x70, 0x7f, 0x86, 0xa1, 0x6c, 0x92, 0x7f, 0x98, 0x65,
  0x8d, 0x70, 0x8e, 0x67, 0x63, 0x68, 0x9f, 0x7f, 0x70, 0x7e, 0x94, 0x85,
  0x85, 0x81, 0x86, 0x73, 0x7e, 0x7e, 0x94, 0x70, 0x78, 0x90, 0x88, 0x88,
  0x78, 0x78, 0xa5, 0x89, 0x74, 0x89, 0xa5, 0x8d, 0x5f, 0x72, 0xa5, 0x73,
  0x51, 0x7b, 0xc0, 0x75, 0x63, 0x86, 0x9a, 0x8d, 0x5f, 0x95, 0x93, 0x79,
  0x87, 0x7f, 0x96, 0x6c, 0x6b, 0x61, 0xab, 0x74, 0x56, 0x64, 0xb7, 0x7d,
  0x3f, 0x82, 0xc5, 0x74, 0x5b, 0x6d, 0xa9, 0x7f, 0x6a, 0x82, 0x9b, 0x80,
  0x88, 0x7c, 0x94, 0x74, 0x87, 0x80, 0x91, 0x8b, 0x87, 0x87, 0x93, 0x86,
  0x66, 0x7e, 0x98, 0x6e, 0x5f, 0x81, 0x97, 0x80, 0x82, 0x83, 0x83, 0x7e,
  0x7c, 0x87, 0x9b, 0x7f, 0x6b, 0x93, 0x86, 0x81, 0x66, 0x86, 0x9e, 0x6d,
  0x65, 0x8d, 0x9b, 0x80, 0x54, 0x81, 0xa0, 0x7e, 0x4b, 0x85, 0xba, 0x69,
  0x6a, 0x90, 0x8d, 0x72, 0x68, 0x8e, 0x7e, 0x79, 0x83, 0x83, 0x8a, 0x83,
  0x66, 0x79, 0xa6, 0x74, 0x42, 0x6d, 0xc1, 0x84, 0x3b, 0x80, 0xc9, 0x7f,
  0x51, 0x83, 0xa7, 0x83, 0x71, 0x81, 0xa4, 0x7d, 0x7a, 0x8b, 0x9a, 0x86,
  0x8b, 0x85, 0x8e, 0x6d, 0x84, 0x86, 0x95, 0x81, 0x69, 0x89, 0xa4, 0x7d,
  0x72, 0x7e, 0x92, 0x6e, 0x81, 0x8b, 0x8a, 0x6a, 0x75, 0x92, 0x90, 0x8b,
  0x68, 0x8e, 0x8d, 0x69, 0x78, 0x7d, 0x9a, 0x7d, 0x58, 0x8f, 0x97, 0x89,
  0x57, 0x77, 0xa9, 0x75, 0x4d, 0x9b, 0xbd, 0x7a, 0x69, 0x96, 0xa0, 0x81,
  0x7c, 0x95, 0x85, 0x7c, 0x8c, 0x70, 0x85, 0x77, 0x7b, 0x7f, 0xb2, 0x66,
  0x3d, 0x6f, 0xc3, 0x88, 0x2e, 0x79, 0xc3, 0x7a, 0x5e, 0x86, 0xab, 0x7e,
  0x66, 0x90, 0x9b, 0x92, 0x6f, 0x7f, 0x93, 0x7b, 0x8d, 0x81, 0x83, 0x84,
  0x75, 0x84, 0x8e, 0x74, 0x66, 0x87, 0x93, 0x79, 0x6e, 0x8c, 0x8f, 0x7b,
  0x73, 0x8b, 0x89, 0x73, 0x71, 0x8f, 0x94, 0x7a, 0x71, 0x81, 0x82, 0x60,
  0x6e, 0x70, 0x92, 0x90, 0x56, 0x92, 0xa7, 0x73, 0x4e, 0x7c, 0xac, 0x6b,
  0x39, 0x96, 0xc0, 0x6a, 0x5f, 0x96, 0x9b, 0x84, 0x72, 0x8b, 0x79, 0x71,
  0x87, 0x7c, 0x87, 0x6a, 0x73, 0x76, 0x9d, 0x7a, 0x24, 0x6c, 0xc4, 0x7b,
  0x25, 0x80, 0xbc, 0x8b, 0x51, 0x87, 0xa4, 0x7a, 0x63, 0x76, 0x98, 0x7c,
  0x6e, 0x90, 0x92, 0x8d, 0x91, 0x90, 0x7d, 0x77, 0x7f, 0x86, 0x87, 0x6c,
  0x6f, 0x7e, 0xa0, 0x7c, 0x68, 0x86, 0x8d, 0x7b, 0x74, 0x89, 0x8c, 0x8b,
  0x69, 0x96, 0x97, 0x68, 0x7f, 0x8e, 0x8e, 0x7a, 0x68, 0x77, 0x90, 0x79,
  0x61, 0x97, 0xa5, 0x73, 0x3d, 0x87, 0xb3, 0x81, 0x3a, 0x90, 0xcc, 0x75,
  0x56, 0x97, 0x8f, 0x80, 0x8a, 0x91, 0x78, 0x74, 0x8d, 0x76, 0x76, 0x6d,
  0x62, 0x72, 0xa8, 0x6f, 0x33, 0x6e, 0xc9, 0x88, 0x0e, 0x7e, 0xcc, 0x82,
  0x53, 0x8a, 0xaf, 0x76, 0x4d, 0x8c, 0x9c, 0x8a, 0x70, 0x8a, 0x99, 0x6a,
  0x93, 0x83, 0x74, 0x76, 0x73, 0x81, 0x93, 0x72, 0x57, 0x86, 0xa5, 0x7f,
  0x65, 0x8b, 0x92, 0x7c, 0x66, 0x92, 0x8e, 0x7c, 0x66, 0x94, 0x8d, 0x74,
  0x74, 0x91, 0x83, 0x79, 0x7d, 0x82, 0x8f, 0x7f, 0x5d, 0x96, 0x97, 0x6d,
  0x58, 0x7a, 0xc0, 0x83, 0x3c, 0x98, 0xc3, 0x6e, 0x6e, 0x98, 0x9f, 0x7a,
  0x82, 0x8d, 0x65, 0x79, 0x95, 0x76, 0x68, 0x71, 0x60, 0x71, 0xa2, 0x7e,
  0x12, 0x65, 0xc2, 0x8f, 0x01, 0x73, 0xc0, 0x74, 0x3b, 0x81, 0xa5, 0x79,
  0x4f, 0x80, 0x9a, 0x85, 0x5f, 0x8a, 0x97, 0x76, 0x92, 0x89, 0x72, 0x7a,
  0x7f, 0x8b, 0x94, 0x76, 0x51, 0x7b, 0x98, 0x6b, 0x5a, 0x7a, 0x88, 0x79,
  0x7d, 0x96, 0x8b, 0x6d, 0x64, 0x8c, 0x7f, 0x75, 0x6a, 0x95, 0x81, 0x80,
  0x61, 0x82, 0x88, 0x7d, 0x6c, 0x93, 0xa3, 0x86, 0x4d, 0x7d, 0xb5, 0x73,
  0x3b, 0x96, 0xca, 0x77, 0x68, 0xa1, 0x97, 0x6e, 0x8e, 0x86, 0x68, 0x60,
  0x89, 0x76, 0x71, 0x82, 0x6d, 0x75, 0xa1, 0x73, 0x0f, 0x63, 0xcb, 0x7c,
  0x0e, 0x79, 0xc3, 0x7e, 0x49, 0x85, 0xa3, 0x7a, 0x59, 0x88, 0x9c, 0x7b,
  0x70, 0x94, 0x9e, 0x74, 0x9b, 0x8e, 0x6a, 0x78, 0x78, 0x84, 0x9b, 0x69,
  0x4e, 0x7c, 0x9d, 0x6b, 0x5d, 0x8b, 0x8e, 0x70, 0x6e, 0x9a, 0x8a, 0x77,
  0x5d, 0x8c, 0x8a, 0x7b, 0x65, 0x86, 0x8f, 0x6b, 0x63, 0x86, 0x84, 0x87,
  0x70, 0x91, 0xaf, 0x78, 0x5d, 0x72, 0xb5, 0x7a, 0x41, 0xa1, 0xc4, 0x68,
  0x67, 0x8e, 0x9a, 0x71, 0x89, 0x87, 0x64, 0x7c, 0x7a, 0x76, 0x6d, 0x7d,
  0x6d, 0x6d, 0xa5, 0x76, 0x12, 0x6a, 0xcd, 0x8b, 0x13, 0x6a, 0xca, 0x92,
  0x41, 0x83, 0xa7, 0x7d, 0x4e, 0x8b, 0xa3, 0x7f, 0x74, 0x86, 0x94, 0x84,
  0x8b, 0x8a, 0x72, 0x63, 0x6d, 0x93, 0x99, 0x76, 0x55, 0x80, 0xa2, 0x68,
  0x61, 0x93, 0x90, 0x80, 0x77, 0x8e, 0x79, 0x66, 0x5b, 0x82, 0x81, 0x6d,
  0x69, 0x8d, 0x89, 0x7f, 0x5a, 0x82, 0x88, 0x75, 0x86, 0x9c, 0xaf, 0x66,
  0x51, 0x83, 0xb2, 0x6a, 0x49, 0x9b, 0xca, 0x85, 0x5f, 0xa3, 0x90, 0x6c,
  0x74, 0x90, 0x6c, 0x71, 0x8b, 0x6f, 0x64, 0x6e, 0x68, 0x71, 0x9e, 0x77,
  0x04, 0x6b, 0xbd, 0x7f, 0x17, 0x73, 0xbf, 0x89, 0x46, 0x84, 0xa2, 0x7f,
  0x4d, 0x92, 0x96, 0x7b, 0x66, 0x7e, 0x8f, 0x78, 0x87, 0x80, 0x76, 0x68,
  0x70, 0x86, 0x84, 0x69, 0x59, 0x87, 0x96, 0x6f, 0x52, 0x88, 0x98, 0x82,
  0x67, 0x92, 0x8f, 0x72, 0x5b, 0x8a, 0x8b, 0x72, 0x6a, 0x89, 0x7f, 0x6a,
  0x74, 0x97, 0x89, 0x66, 0x70, 0xa1, 0xb5, 0x71, 0x55, 0x7f, 0xbe, 0x66,
  0x3f, 0x9c, 0xd6, 0x76, 0x5b, 0x95, 0x94, 0x6c, 0x7f, 0x9a, 0x5b, 0x74,
  0x8a, 0x81, 0x5e, 0x6f, 0x62, 0x73, 0xa8, 0x6d, 0x17, 0x5a, 0xc3, 0x86,
  0x12, 0x75, 0xc3, 0x84, 0x3a, 0x7d, 0x9f, 0x82, 0x46, 0x87, 0x9c, 0x74,
  0x60, 0x85, 0x99, 0x93, 0x81, 0x8f, 0x70, 0x7c, 0x77, 0x89, 0x7f, 0x5a,
  0x53, 0x86, 0x9f, 0x6b, 0x58, 0x90, 0x9c, 0x71, 0x67, 0x95, 0x8c, 0x6d,
  0x6f, 0x8c, 0x8b, 0x6d, 0x5e, 0x81, 0x83, 0x6f, 0x75, 0x87, 0x85, 0x67,
  0x6e, 0x93, 0xc2, 0x58, 0x5d, 0x82, 0xbd, 0x6d, 0x37, 0x95, 0xce, 0x72,
  0x61, 0x98, 0x97, 0x80, 0x7c, 0x9a, 0x6b, 0x7a, 0x88, 0x86, 0x67, 0x68,
  0x5f, 0x6c, 0xad, 0x65, 0x27, 0x67, 0xc6, 0x8e, 0x11, 0x66, 0xcd, 0x77,
  0x48, 0x87, 0xab, 0x8a, 0x46, 0x88, 0x9e, 0x72, 0x65, 0x84, 0x8e, 0x70,
  0x8a, 0x90, 0x75, 0x72, 0x73, 0x86, 0x70, 0x6a, 0x5d, 0x80, 0x93, 0x69,
  0x62, 0x87, 0x9a, 0x7c, 0x71, 0x8e, 0x87, 0x65, 0x62, 0x89, 0x8b, 0x60,
  0x6f, 0x81, 0x88, 0x6d, 0x76, 0x96, 0x88, 0x6a, 0x6b, 0x8c, 0xb6, 0x65,
  0x50, 0x80, 0xc9, 0x68, 0x3c, 0x93, 0xde, 0x6b, 0x62, 0x8f, 0xa1, 0x67,
  0x79, 0xa8, 0x64, 0x66, 0x86, 0x81, 0x67, 0x6c, 0x60, 0x79, 0xa1, 0x6d,
  0x1f, 0x61, 0xc2, 0x98, 0x04, 0x54, 0xbe, 0x86, 0x4e, 0x78, 0xb3, 0x81,
  0x53, 0x95, 0x9d, 0x83, 0x71, 0x84, 0x94, 0x7e, 0x86, 0x90, 0x7f, 0x71,
  0x70, 0x8a, 0x7d, 0x62, 0x4f, 0x7e, 0xa1, 0x68, 0x61, 0x85, 0x91, 0x62,
  0x74, 0x90, 0x86, 0x6e, 0x68, 0x82, 0x89, 0x5f, 0x73, 0x82, 0x83, 0x55,
  0x70, 0x8e, 0x8c, 0x76, 0x64, 0xa7, 0xc1, 0x68, 0x54, 0x7a, 0xd8, 0x5d,
  0x3a, 0x8d, 0xdb, 0x6a, 0x64, 0x9f, 0xad, 0x68, 0x79, 0x97, 0x7e, 0x70,
  0x81, 0x87, 0x78, 0x61, 0x65, 0x67, 0xa5, 0x70, 0x1b, 0x60, 0xca, 0x85,
  0x06, 0x73, 0xd4, 0x86, 0x3a, 0x75, 0xac, 0x7f, 0x51, 0x7a, 0xa9, 0x92,
  0x72, 0x86, 0xa3, 0x66, 0x87, 0x87, 0x7e, 0x6b, 0x6d, 0x74, 0x8b, 0x68,
  0x54, 0x83, 0x9c, 0x72, 0x54, 0x86, 0x9e, 0x75, 0x7b, 0x88, 0x8f, 0x6d,
  0x5d, 0x8c, 0x94, 0x5d, 0x7a, 0x8e, 0x87, 0x5f, 0x7d, 0x80, 0x88, 0x6a,
  0x77, 0xa2, 0xc4, 0x56, 0x50, 0x83, 0xd7, 0x63, 0x3e, 0x8e, 0xf3, 0x65,
  0x65, 0x9e, 0xb4, 0x7c, 0x84, 0x94, 0x80, 0x58, 0x89, 0x72, 0x7f, 0x69,
  0x64, 0x74, 0xc0, 0x78, 0x3d, 0x68, 0xd1, 0x80, 0x0a, 0x67, 0xd7, 0x8e,
  0x4d, 0x70, 0xc7, 0x70, 0x52, 0x7e, 0xaf, 0x81, 0x5c, 0x83, 0x9b, 0x71,
  0x7b, 0x78, 0x7b, 0x59, 0x66, 0x77, 0x93, 0x6e, 0x55, 0x73, 0xa9, 0x6b,
  0x5e, 0x89, 0x9c, 0x5b, 0x6f, 0x84, 0x90, 0x62, 0x53, 0x7e, 0x8b, 0x6a,
  0x82, 0x8f, 0x92, 0x57, 0x89, 0x7f, 0x97, 0x70, 0x75, 0xa8, 0xbc, 0x64,
  0x69, 0x7d, 0xde, 0x74, 0x41, 0x8b, 0xf2, 0x6c, 0x62, 0x99, 0xcb, 0x5c,
  0x7e, 0x81, 0x90, 0x77, 0x86, 0x74, 0x93, 0x50, 0x74, 0x6a, 0xb8, 0x58,
  0x2d, 0x62, 0xd0, 0x83, 0x1b, 0x6f, 0xe6, 0x81, 0x49, 0x68, 0xc0, 0x91,
  0x56, 0x73, 0xba, 0x82, 0x4e, 0x77, 0xa9, 0x6b, 0x89, 0x81, 0x81, 0x7b,
  0x6f, 0x77, 0x95, 0x61, 0x5a, 0x7c, 0xa9, 0x6a, 0x5c, 0x82, 0xb0, 0x67,
  0x70, 0x90, 0x95, 0x77, 0x70, 0x85, 0x96, 0x5a, 0x89, 0x90, 0x95, 0x65,
  0x6c, 0x81, 0x95, 0x68, 0x84, 0xa4, 0xd0, 0x6c, 0x67, 0x80, 0xdf, 0x61,
  0x56, 0x8d, 0xfa, 0x65, 0x70, 0x99, 0xca, 0x71, 0x88, 0x75, 0x9e, 0x54,
  0x90, 0x71, 0x94, 0x5a, 0x6d, 0x52, 0xc0, 0x6e, 0x40, 0x69, 0xe5, 0x76,
  0x15, 0x61, 0xe6, 0x77, 0x4b, 0x6e, 0xba, 0x6f, 0x4d, 0x6f, 0xb0, 0x69,
  0x60, 0x77, 0xa4, 0x83, 0x7f, 0x88, 0x8a, 0x5f, 0x7f, 0x71, 0xae, 0x64,
  0x5b, 0x78, 0xae, 0x6d, 0x52, 0x88, 0xa6, 0x5d, 0x62, 0x7f, 0x96, 0x80,
  0x62, 0x7a, 0x98, 0x56, 0x73, 0x7d, 0x90, 0x68, 0x80, 0x82, 0x9d, 0x63,
  0x83, 0xa6, 0xbb, 0x5a, 0x69, 0x64, 0xdd, 0x5c, 0x4b, 0x96, 0xef, 0x6d,
  0x73, 0x8c, 0xbd, 0x6f, 0x8d, 0x7b, 0xac, 0x7e, 0xa1, 0x76, 0x9e, 0x62,
  0x70, 0x77, 0xc6, 0x59, 0x43, 0x5d, 0xe2, 0x7b, 0x28, 0x5f, 0xdc, 0x72,
  0x5d, 0x61, 0xb4, 0x79, 0x5b, 0x64, 0x9c, 0x71, 0x58, 0x72, 0x94, 0x6b,
  0x92, 0x72, 0x8c, 0x69, 0x7f, 0x64, 0x96, 0x73, 0x61, 0x66, 0xae, 0x5f,
  0x4f, 0x7e, 0xb0, 0x79, 0x66, 0x78, 0x8d, 0x67, 0x72, 0x7c, 0x94, 0x6a,
  0x80, 0x7f, 0x92, 0x69, 0x72, 0x88, 0x8f, 0x7e, 0x9b, 0x9a, 0xb4, 0x58,
  0x71, 0x76, 0xcb, 0x62, 0x54, 0x90, 0xd6, 0x72, 0x76, 0x81, 0xaa, 0x57,
  0x8d, 0x71, 0xa6, 0x63, 0xa6, 0x68, 0x93, 0x6d, 0x8f, 0x75, 0xb7, 0x65,
  0x67, 0x5d, 0xd3, 0x6b, 0x43, 0x5d, 0xcf, 0x86, 0x61, 0x60, 0xa0, 0x7a,
  0x5c, 0x6d, 0x9d, 0x68, 0x6e, 0x6e, 0x98, 0x7a, 0x89, 0x69, 0x8b, 0x69,
  0x80, 0x63, 0xa2, 0x70, 0x68, 0x6a, 0xa6, 0x70, 0x72, 0x7a, 0xab, 0x66,
  0x5d, 0x7f, 0xa8, 0x60, 0x75, 0x82, 0x95, 0x74, 0x74, 0x80, 0x87, 0x73,
  0x83, 0x7c, 0x94, 0x6c, 0x92, 0x90, 0x9a, 0x61, 0x92, 0x5e, 0xc1, 0x5c,
  0x8a, 0x7b, 0xce, 0x6b, 0x94, 0x7e, 0x98, 0x60, 0xa6, 0x5e, 0x78, 0x5e,
  0xb2, 0x4c, 0x6b, 0x6c, 0x9a, 0x4e, 0xa4, 0x5f, 0x70, 0x45, 0xbb, 0x60,
  0x6b, 0x4d, 0xc1, 0x6f, 0x79, 0x5b, 0x92, 0x6a, 0x74, 0x5f, 0x90, 0x6e,
  0x86, 0x63, 0x7b, 0x7d, 0x8f, 0x70, 0x83, 0x6d, 0x85, 0x66, 0x9f, 0x62,
  0x72, 0x66, 0x91, 0x62, 0x6e, 0x6c, 0x9c, 0x70, 0x68, 0x84, 0x87, 0x59,
  0x69, 0x7a, 0x7d, 0x69, 0x77, 0x7a, 0x7a, 0x6b, 0x78, 0x8b, 0x80, 0x7b,
  0xde, 0x6e, 0x56, 0x87, 0xc8, 0x88, 0x86, 0x62, 0xb0, 0x66, 0x83, 0x65,
  0xb9, 0x67, 0x77, 0x88, 0xc6, 0x5e, 0x5f, 0x92, 0xd3, 0x5c, 0x55, 0x67,
  0xcd, 0x69, 0x67, 0x78, 0x9e, 0x66, 0x7f, 0x6a, 0x94, 0x5c, 0x70, 0x6a,
  0x9b, 0x6a, 0x6e, 0x94, 0x9d, 0x55, 0x65, 0x6d, 0x9e, 0x56, 0x6a, 0x7c,
  0xa5, 0x78, 0x68, 0x8c, 0xa5, 0x7a, 0x7a, 0x67, 0xab, 0x6c, 0x6e, 0x72,
  0x8b, 0x86, 0x83, 0x8d, 0x85, 0x6f, 0x71, 0x7d, 0x8c, 0x7a, 0x67, 0x7c,
  0x98, 0x88, 0x6c, 0x66, 0x87, 0x7a, 0x7c, 0x78, 0x00, 0x00, 0x0e, 0x00,
  0x18, 0x00, 0x08, 0x00, 0x07, 0x00, 0x0c, 0x00, 0x10, 0x00, 0x14, 0x00,
  0x0e, 0x00, 0x00, 0x00, 0x00, 0x00, 0x00, 0x02, 0x10, 0x00, 0x00, 0x00,
  0x01, 0x00, 0x00, 0x00, 0x10, 0x00, 0x00, 0x00, 0x28, 0x00, 0x00, 0x00,
  0x01, 0x00, 0x00, 0x00, 0x06, 0x00, 0x00, 0x00, 0x0b, 0x00, 0x00, 0x00,
  0x4d, 0x61, 0x74, 0x4d, 0x75, 0x6c, 0x5f, 0x62, 0x69, 0x61, 0x73, 0x00,
  0x0c, 0x00, 0x0c, 0x00, 0x00, 0x00, 0x00, 0x00, 0x04, 0x00, 0x08, 0x00,
  0x0c, 0x00, 0x00, 0x00, 0x18, 0x00, 0x00, 0x00, 0x04, 0x00, 0x00, 0x00,
  0x01, 0x00, 0x00, 0x00, 0x00, 0x00, 0x00, 0x00, 0x00, 0x00, 0x00, 0x00,
  0x00, 0x00, 0x00, 0x00, 0x01, 0x00, 0x00, 0x00, 0xc1, 0x82, 0x42, 0x38,
  0x18, 0x00, 0x00, 0x00, 0x6f, 0x00, 0x00, 0x00, 0x43, 0x00, 0x00, 0x00,
  0x71, 0xfe, 0xff, 0xff, 0x40, 0xff, 0xff, 0xff, 0x79, 0x01, 0x00, 0x00,
  0x87, 0x02, 0x00, 0x00, 0x03, 0x00, 0x00, 0x00, 0xb4, 0x00, 0x00, 0x00,
  0x5c, 0x00, 0x00, 0x00, 0x04, 0x00, 0x00, 0x00, 0xc0, 0xff, 0xff, 0xff,
  0x00, 0x00, 0x00, 0x09, 0x02, 0x00, 0x00, 0x00, 0x10, 0x00, 0x00, 0x00,
  0x14, 0x00, 0x00, 0x00, 0x24, 0x00, 0x00, 0x00, 0x14, 0x00, 0x00, 0x00,
  0x01, 0x00, 0x00, 0x00, 0x04, 0x00, 0x00, 0x00, 0x01, 0x00, 0x00, 0x00,
  0x05, 0x00, 0x00, 0x00, 0x00, 0x00, 0x00, 0x00, 0x00, 0x00, 0x06, 0x00,
  0x08, 0x00, 0x04, 0x00, 0x06, 0x00, 0x00, 0x00, 0x00, 0x00, 0x80, 0x3f,
  0x14, 0x00, 0x1c, 0x00, 0x08, 0x00, 0x0c, 0x00, 0x10, 0x00, 0x07, 0x00,
  0x14, 0x00, 0x00, 0x00, 0x00, 0x00, 0x18, 0x00, 0x14, 0x00, 0x00, 0x00,
  0x00, 0x00, 0x00, 0x08, 0x01, 0x00, 0x00, 0x00, 0x10, 0x00, 0x00, 0x00,
  0x1c, 0x00, 0x00, 0x00, 0x28, 0x00, 0x00, 0x00, 0x1c, 0x00, 0x00, 0x00,
  0x03, 0x00, 0x00, 0x00, 0x02, 0x00, 0x00, 0x00, 0x07, 0x00, 0x00, 0x00,
  0x01, 0x00, 0x00, 0x00, 0x01, 0x00, 0x00, 0x00, 0x04, 0x00, 0x00, 0x00,
  0x00, 0x00, 0x00, 0x00, 0x04, 0x00, 0x04, 0x00, 0x04, 0x00, 0x00, 0x00,
  0x14, 0x00, 0x18, 0x00, 0x00, 0x00, 0x08, 0x00, 0x0c, 0x00, 0x07, 0x00,
  0x10, 0x00, 0x00, 0x00, 0x00, 0x00, 0x14, 0x00, 0x14, 0x00, 0x00, 0x00,
  0x00, 0x00, 0x00, 0x02, 0x10, 0x00, 0x00, 0x00, 0x1c, 0x00, 0x00, 0x00,
  0x30, 0x00, 0x00, 0x00, 0x1c, 0x00, 0x00, 0x00, 0x03, 0x00, 0x00, 0x00,
  0x03, 0x00, 0x00, 0x00, 0x06, 0x00, 0x00, 0x00, 0x00, 0x00, 0x00, 0x00,
  0x01, 0x00, 0x00, 0x00, 0x02, 0x00, 0x00, 0x00, 0x00, 0x00, 0x00, 0x00,
  0x0c, 0x00, 0x10, 0x00, 0x00, 0x00, 0x04, 0x00, 0x08, 0x00, 0x0c, 0x00,
  0x0c, 0x00, 0x00, 0x00, 0x02, 0x00, 0x00, 0x00, 0x02, 0x00, 0x00, 0x00,
  0x04, 0x00, 0x00, 0x00, 0x03, 0x00, 0x00, 0x00, 0x24, 0x00, 0x00, 0x00,
  0x14, 0x00, 0x00, 0x00, 0x04, 0x00, 0x00, 0x00, 0xfa, 0xff, 0xff, 0xff,
  0x00, 0x19, 0x06, 0x00, 0x06, 0x00, 0x05, 0x00, 0x06, 0x00, 0x00, 0x00,
  0x00, 0x09, 0x06, 0x00, 0x08, 0x00, 0x07, 0x00, 0x06, 0x00, 0x00, 0x00,
  0x00, 0x00, 0x00, 0x04
};
unsigned int _tmp_converted_model_optInfer_tflite_len = 13720;
